<?xml version="1.0"?>
<opencv_storage>
<cascade>
  <stageType>BOOST</stageType>
  <featureType>HAAR</featureType>
  <height>24</height>
  <width>24</width>
  <stageParams>
    <boostType>GAB</boostType>
    <minHitRate>9.9900001287460327e-01</minHitRate>
    <maxFalseAlarm>5.0000000000000000e-01</maxFalseAlarm>
    <weightTrimRate>9.4999999999999996e-01</weightTrimRate>
    <maxDepth>1</maxDepth>
    <maxWeakCount>100</maxWeakCount></stageParams>
  <featureParams>
    <maxCatCount>0</maxCatCount>
    <featSize>1</featSize>
    <mode>ALL</mode></featureParams>
  <stageNum>20</stageNum>
  <stages>
    <!-- stage 0 -->
    <_>
      <maxWeakCount>10</maxWeakCount>
      <stageThreshold>-1.9279689788818359e+00</stageThreshold>
      <weakClassifiers>
        <_>
          <internalNodes>
            0 -1 237 8.6790113709867001e-04</internalNodes>
          <leafValues>
            2.7858081459999084e-01 -8.8702929019927979e-01</leafValues></_>
        <_>
          <internalNodes>
            0 -1 105 -3.0728504061698914e-02</internalNodes>
          <leafValues>
            6.5759336948394775e-01 -3.6425748467445374e-01</leafValues></_>
        <_>
          <internalNodes>
            0 -1 232 -1.2739566154778004e-03</internalNodes>
          <leafValues>
            -8.5651051998138428e-01 3.1502798199653625e-01</leafValues></_>
        <_>
          <internalNodes>
            0 -1 245 2.4970810045488179e-04</internalNodes>
          <leafValues>
            2.3402528464794159e-01 -7.2290849685668945e-01</leafValues></_>
        <_>
          <internalNodes>
            0 -1 302 2.2885492071509361e-03</internalNodes>
          <leafValues>
            2.0754951238632202e-01 -8.7265545129776001e-01</leafValues></_>
        <_>
          <internalNodes>
            0 -1 272 -3.4775165840983391e-04</internalNodes>
          <leafValues>
            -7.5416165590286255e-01 1.9850511848926544e-01</leafValues></_>
        <_>
          <internalNodes>
            0 -1 264 4.0330160409212112e-03</internalNodes>
          <leafValues>
            1.7691431939601898e-01 -9.3543851375579834e-01</leafValues></_>
        <_>
          <internalNodes>
            0 -1 315 1.0446070227771997e-03</internalNodes>
          <leafValues>
            -4.7750714421272278e-01 3.8443744182586670e-01</leafValues></_>
        <_>
          <internalNodes>
            0 -1 236 -6.9963198620826006e-04</internalNodes>
          <leafValues>
            -8.8310664892196655e-01 1.9420950114727020e-01</leafValues></_>
        <_>
          <internalNodes>
            0 -1 120 8.3627668209373951e-04</internalNodes>
          <leafValues>
            -4.6125259995460510e-01 3.8419377803802490e-01</leafValues></_></weakClassifiers></_>
    <!-- stage 1 -->
    <_>
      <maxWeakCount>12</maxWeakCount>
      <stageThreshold>-1.5112495422363281e+00</stageThreshold>
      <weakClassifiers>
        <_>
          <internalNodes>
            0 -1 268 -5.0778512377291918e-04</internalNodes>
          <leafValues>
            -8.4773659706115723e-01 2.7212682366371155e-01</leafValues></_>
        <_>
          <internalNodes>
            0 -1 152 1.9884991925209761e-03</internalNodes>
          <leafValues>
            1.8947885930538177e-01 -8.5376697778701782e-01</leafValues></_>
        <_>
          <internalNodes>
            0 -1 106 1.2743053957819939e-02</internalNodes>
          <leafValues>
            -3.2935392856597900e-01 6.5906471014022827e-01</leafValues></_>
        <_>
          <internalNodes>
            0 -1 244 4.4756390707334504e-05</internalNodes>
          <leafValues>
            2.8618133068084717e-01 -6.6017407178878784e-01</leafValues></_>
        <_>
          <internalNodes>
            0 -1 23 6.4368406310677528e-04</internalNodes>
          <leafValues>
            -4.6051228046417236e-01 3.8027721643447876e-01</leafValues></_>
        <_>
          <internalNodes>
            0 -1 305 6.1468034982681274e-04</internalNodes>
          <leafValues>
            1.8335953354835510e-01 -8.3215361833572388e-01</leafValues></_>
        <_>
          <internalNodes>
            0 -1 374 2.0930796861648560e-02</internalNodes>
          <leafValues>
            -3.2230463624000549e-01 5.0055480003356934e-01</leafValues></_>
        <_>
          <internalNodes>
            0 -1 214 -1.1176789412274957e-03</internalNodes>
          <leafValues>
            -9.2885148525238037e-01 1.7483814060688019e-01</leafValues></_>
        <_>
          <internalNodes>
            0 -1 337 1.2559044989757240e-04</internalNodes>
          <leafValues>
            -6.0645192861557007e-01 2.3762975633144379e-01</leafValues></_>
        <_>
          <internalNodes>
            0 -1 184 1.3735648244619370e-02</internalNodes>
          <leafValues>
            -2.2239716351032257e-01 6.8173938989639282e-01</leafValues></_>
        <_>
          <internalNodes>
            0 -1 118 -1.1789299547672272e-02</internalNodes>
          <leafValues>
            -8.4306985139846802e-01 1.8633951246738434e-01</leafValues></_>
        <_>
          <internalNodes>
            0 -1 71 8.8293896988034248e-04</internalNodes>
          <leafValues>
            -3.8636359572410583e-01 3.6287558078765869e-01</leafValues></_></weakClassifiers></_>
    <!-- stage 2 -->
    <_>
      <maxWeakCount>11</maxWeakCount>
      <stageThreshold>-1.4341441392898560e+00</stageThreshold>
      <weakClassifiers>
        <_>
          <internalNodes>
            0 -1 146 -2.1217295434325933e-03</internalNodes>
          <leafValues>
            -7.6264590024948120e-01 2.6379543542861938e-01</leafValues></_>
        <_>
          <internalNodes>
            0 -1 367 -7.6375966891646385e-03</internalNodes>
          <leafValues>
            4.9825885891914368e-01 -3.7473511695861816e-01</leafValues></_>
        <_>
          <internalNodes>
            0 -1 50 2.7593025151873007e-05</internalNodes>
          <leafValues>
            2.7375704050064087e-01 -6.6916471719741821e-01</leafValues></_>
        <_>
          <internalNodes>
            0 -1 214 1.1922563426196575e-03</internalNodes>
          <leafValues>
            1.7957465350627899e-01 -9.1761773824691772e-01</leafValues></_>
        <_>
          <internalNodes>
            0 -1 297 2.9956293292343616e-04</internalNodes>
          <leafValues>
            -4.4722297787666321e-01 3.3854538202285767e-01</leafValues></_>
        <_>
          <internalNodes>
            0 -1 171 -2.2869842359796166e-04</internalNodes>
          <leafValues>
            -6.0276556015014648e-01 2.0825780928134918e-01</leafValues></_>
        <_>
          <internalNodes>
            0 -1 27 -2.3624796420335770e-02</internalNodes>
          <leafValues>
            5.1812666654586792e-01 -2.8868383169174194e-01</leafValues></_>
        <_>
          <internalNodes>
            0 -1 242 2.9706611530855298e-04</internalNodes>
          <leafValues>
            1.6538895666599274e-01 -7.1832865476608276e-01</leafValues></_>
        <_>
          <internalNodes>
            0 -1 104 -2.3094573989510536e-03</internalNodes>
          <leafValues>
            4.7655257582664490e-01 -3.0401924252510071e-01</leafValues></_>
        <_>
          <internalNodes>
            0 -1 153 -1.1365190148353577e-03</internalNodes>
          <leafValues>
            3.9060667157173157e-01 -3.3280625939369202e-01</leafValues></_>
        <_>
          <internalNodes>
            0 -1 217 6.6550809424370527e-04</internalNodes>
          <leafValues>
            1.7619481682777405e-01 -8.2449537515640259e-01</leafValues></_></weakClassifiers></_>
    <!-- stage 3 -->
    <_>
      <maxWeakCount>14</maxWeakCount>
      <stageThreshold>-1.4377095699310303e+00</stageThreshold>
      <weakClassifiers>
        <_>
          <internalNodes>
            0 -1 331 -6.8546421825885773e-03</internalNodes>
          <leafValues>
            5.7209300994873047e-01 -2.7232471108436584e-01</leafValues></_>
        <_>
          <internalNodes>
            0 -1 173 3.1094317091628909e-04</internalNodes>
          <leafValues>
            2.3069095611572266e-01 -7.5629705190658569e-01</leafValues></_>
        <_>
          <internalNodes>
            0 -1 170 -6.0487247537821531e-04</internalNodes>
          <leafValues>
            2.5141865015029907e-01 -5.9920126199722290e-01</leafValues></_>
        <_>
          <internalNodes>
            0 -1 119 6.0126255266368389e-04</internalNodes>
          <leafValues>
            2.0459042489528656e-01 -7.5403308868408203e-01</leafValues></_>
        <_>
          <internalNodes>
            0 -1 92 1.0793708497658372e-03</internalNodes>
          <leafValues>
            -4.0625253319740295e-01 3.7839606404304504e-01</leafValues></_>
        <_>
          <internalNodes>
            0 -1 271 2.7541309827938676e-04</internalNodes>
          <leafValues>
            1.7033648490905762e-01 -7.4832957983016968e-01</leafValues></_>
        <_>
          <internalNodes>
            0 -1 114 -4.1930060833692551e-03</internalNodes>
          <leafValues>
            -6.4324027299880981e-01 1.4818030595779419e-01</leafValues></_>
        <_>
          <internalNodes>
            0 -1 87 -2.5817843154072762e-02</internalNodes>
          <leafValues>
            5.3572750091552734e-01 -2.5121259689331055e-01</leafValues></_>
        <_>
          <internalNodes>
            0 -1 148 7.9693202860653400e-04</internalNodes>
          <leafValues>
            1.4507660269737244e-01 -8.5360330343246460e-01</leafValues></_>
        <_>
          <internalNodes>
            0 -1 62 -4.3541070772334933e-04</internalNodes>
          <leafValues>
            2.2932076454162598e-01 -4.7611290216445923e-01</leafValues></_>
        <_>
          <internalNodes>
            0 -1 89 -5.7833734899759293e-03</internalNodes>
          <leafValues>
            5.0901019573211670e-01 -2.0750291645526886e-01</leafValues></_>
        <_>
          <internalNodes>
            0 -1 111 4.3734796345233917e-03</internalNodes>
          <leafValues>
            2.3731237649917603e-01 -4.9932837486267090e-01</leafValues></_>
        <_>
          <internalNodes>
            0 -1 151 6.7957479041069746e-04</internalNodes>
          <leafValues>
            1.1499320715665817e-01 -8.6241626739501953e-01</leafValues></_>
        <_>
          <internalNodes>
            0 -1 127 -9.9040158092975616e-03</internalNodes>
          <leafValues>
            6.2548059225082397e-01 -2.1944928169250488e-01</leafValues></_></weakClassifiers></_>
    <!-- stage 4 -->
    <_>
      <maxWeakCount>15</maxWeakCount>
      <stageThreshold>-1.3921465873718262e+00</stageThreshold>
      <weakClassifiers>
        <_>
          <internalNodes>
            0 -1 81 1.7510447651147842e-02</internalNodes>
          <leafValues>
            -2.9923665523529053e-01 5.6811594963073730e-01</leafValues></_>
        <_>
          <internalNodes>
            0 -1 320 -2.0223887986503541e-04</internalNodes>
          <leafValues>
            3.2937335968017578e-01 -5.0442534685134888e-01</leafValues></_>
        <_>
          <internalNodes>
            0 -1 323 -3.9084977470338345e-04</internalNodes>
          <leafValues>
            -7.1023666858673096e-01 1.9024735689163208e-01</leafValues></_>
        <_>
          <internalNodes>
            0 -1 240 9.6005841623991728e-04</internalNodes>
          <leafValues>
            1.2309592962265015e-01 -7.6950657367706299e-01</leafValues></_>
        <_>
          <internalNodes>
            0 -1 364 7.0637313183397055e-04</internalNodes>
          <leafValues>
            -3.3833819627761841e-01 3.6806109547615051e-01</leafValues></_>
        <_>
          <internalNodes>
            0 -1 254 1.1351998150348663e-01</internalNodes>
          <leafValues>
            1.4277753233909607e-01 -7.1304047107696533e-01</leafValues></_>
        <_>
          <internalNodes>
            0 -1 61 -6.9909547455608845e-03</internalNodes>
          <leafValues>
            -6.7200982570648193e-01 1.2586860358715057e-01</leafValues></_>
        <_>
          <internalNodes>
            0 -1 77 1.3892486458644271e-04</internalNodes>
          <leafValues>
            2.3401382565498352e-01 -4.4802090525627136e-01</leafValues></_>
        <_>
          <internalNodes>
            0 -1 341 9.8307700827717781e-03</internalNodes>
          <leafValues>
            -2.8160551190376282e-01 4.7740966081619263e-01</leafValues></_>
        <_>
          <internalNodes>
            0 -1 115 -7.5768237002193928e-04</internalNodes>
          <leafValues>
            3.2590016722679138e-01 -3.8585078716278076e-01</leafValues></_>
        <_>
          <internalNodes>
            0 -1 241 -5.3535553161054850e-04</internalNodes>
          <leafValues>
            -9.7735428810119629e-01 1.1525905877351761e-01</leafValues></_>
        <_>
          <internalNodes>
            0 -1 228 4.6269115409813821e-04</internalNodes>
          <leafValues>
            -2.6188090443611145e-01 4.1211709380149841e-01</leafValues></_>
        <_>
          <internalNodes>
            0 -1 277 -2.0763653446920216e-04</internalNodes>
          <leafValues>
            -7.5517320632934570e-01 1.5750300884246826e-01</leafValues></_>
        <_>
          <internalNodes>
            0 -1 359 1.4079261571168900e-02</internalNodes>
          <leafValues>
            -2.1649336814880371e-01 5.0860434770584106e-01</leafValues></_>
        <_>
          <internalNodes>
            0 -1 5 -2.9677599668502808e-03</internalNodes>
          <leafValues>
            4.4946801662445068e-01 -1.9308111071586609e-01</leafValues></_></weakClassifiers></_>
    <!-- stage 5 -->
    <_>
      <maxWeakCount>18</maxWeakCount>
      <stageThreshold>-1.3743734359741211e+00</stageThreshold>
      <weakClassifiers>
        <_>
          <internalNodes>
            0 -1 102 5.3593493066728115e-04</internalNodes>
          <leafValues>
            -4.1803279519081116e-01 3.9843750000000000e-01</leafValues></_>
        <_>
          <internalNodes>
            0 -1 311 -2.6413263753056526e-02</internalNodes>
          <leafValues>
            5.5900615453720093e-01 -2.9694586992263794e-01</leafValues></_>
        <_>
          <internalNodes>
            0 -1 235 6.2850397080183029e-04</internalNodes>
          <leafValues>
            -4.6189549565315247e-01 2.6610925793647766e-01</leafValues></_>
        <_>
          <internalNodes>
            0 -1 195 1.3374615460634232e-02</internalNodes>
          <leafValues>
            1.4951449632644653e-01 -7.7681332826614380e-01</leafValues></_>
        <_>
          <internalNodes>
            0 -1 191 -2.0563406869769096e-02</internalNodes>
          <leafValues>
            -6.0149550437927246e-01 1.4779372513294220e-01</leafValues></_>
        <_>
          <internalNodes>
            0 -1 31 4.8747920664027333e-04</internalNodes>
          <leafValues>
            -4.3233925104141235e-01 2.5869032740592957e-01</leafValues></_>
        <_>
          <internalNodes>
            0 -1 236 9.5852313097566366e-04</internalNodes>
          <leafValues>
            1.1939367651939392e-01 -9.3797266483306885e-01</leafValues></_>
        <_>
          <internalNodes>
            0 -1 57 -1.6036382876336575e-03</internalNodes>
          <leafValues>
            3.4368833899497986e-01 -3.1181347370147705e-01</leafValues></_>
        <_>
          <internalNodes>
            0 -1 261 4.8356207116739824e-05</internalNodes>
          <leafValues>
            1.7407253384590149e-01 -5.4380685091018677e-01</leafValues></_>
        <_>
          <internalNodes>
            0 -1 252 4.5524380402639508e-04</internalNodes>
          <leafValues>
            -2.6521369814872742e-01 3.5949143767356873e-01</leafValues></_>
        <_>
          <internalNodes>
            0 -1 215 -1.0698063124436885e-04</internalNodes>
          <leafValues>
            -5.7025092840194702e-01 1.7757281661033630e-01</leafValues></_>
        <_>
          <internalNodes>
            0 -1 250 -1.1002920567989349e-02</internalNodes>
          <leafValues>
            3.9234367012977600e-01 -2.4480830132961273e-01</leafValues></_>
        <_>
          <internalNodes>
            0 -1 322 1.3599032536149025e-03</internalNodes>
          <leafValues>
            1.3264748454093933e-01 -6.4663189649581909e-01</leafValues></_>
        <_>
          <internalNodes>
            0 -1 227 -8.6248796433210373e-03</internalNodes>
          <leafValues>
            5.7292038202285767e-01 -1.5951560437679291e-01</leafValues></_>
        <_>
          <internalNodes>
            0 -1 130 2.8745797462761402e-03</internalNodes>
          <leafValues>
            -2.8764402866363525e-01 3.3505570888519287e-01</leafValues></_>
        <_>
          <internalNodes>
            0 -1 39 8.1427637487649918e-03</internalNodes>
          <leafValues>
            -1.5698742866516113e-01 6.0020953416824341e-01</leafValues></_>
        <_>
          <internalNodes>
            0 -1 270 -1.1483622074592859e-04</internalNodes>
          <leafValues>
            -5.5416929721832275e-01 1.8266847729682922e-01</leafValues></_>
        <_>
          <internalNodes>
            0 -1 107 -3.8296449929475784e-03</internalNodes>
          <leafValues>
            6.3575249910354614e-01 -1.8003760278224945e-01</leafValues></_></weakClassifiers></_>
    <!-- stage 6 -->
    <_>
      <maxWeakCount>21</maxWeakCount>
      <stageThreshold>-1.3302876949310303e+00</stageThreshold>
      <weakClassifiers>
        <_>
          <internalNodes>
            0 -1 298 -4.2592204408720136e-04</internalNodes>
          <leafValues>
            2.6568552851676941e-01 -4.8377996683120728e-01</leafValues></_>
        <_>
          <internalNodes>
            0 -1 345 2.1961087360978127e-02</internalNodes>
          <leafValues>
            -2.7018773555755615e-01 5.1684343814849854e-01</leafValues></_>
        <_>
          <internalNodes>
            0 -1 172 -1.1340870987623930e-03</internalNodes>
          <leafValues>
            -8.6178928613662720e-01 1.3837207853794098e-01</leafValues></_>
        <_>
          <internalNodes>
            0 -1 76 1.7644326435402036e-03</internalNodes>
          <leafValues>
            -3.4956297278404236e-01 3.2114145159721375e-01</leafValues></_>
        <_>
          <internalNodes>
            0 -1 100 7.2337840683758259e-03</internalNodes>
          <leafValues>
            9.6410542726516724e-02 -9.4446533918380737e-01</leafValues></_>
        <_>
          <internalNodes>
            0 -1 91 5.1017513033002615e-04</internalNodes>
          <leafValues>
            -3.0687466263771057e-01 2.7554169297218323e-01</leafValues></_>
        <_>
          <internalNodes>
            0 -1 338 -3.3384226262569427e-03</internalNodes>
          <leafValues>
            -6.7538630962371826e-01 1.0808595269918442e-01</leafValues></_>
        <_>
          <internalNodes>
            0 -1 251 -9.0453727170825005e-04</internalNodes>
          <leafValues>
            3.4533870220184326e-01 -2.5591310858726501e-01</leafValues></_>
        <_>
          <internalNodes>
            0 -1 281 4.4516483321785927e-03</internalNodes>
          <leafValues>
            -1.9759990274906158e-01 5.3236073255538940e-01</leafValues></_>
        <_>
          <internalNodes>
            0 -1 169 1.2070423508703243e-05</internalNodes>
          <leafValues>
            1.7560619115829468e-01 -5.7575321197509766e-01</leafValues></_>
        <_>
          <internalNodes>
            0 -1 201 -1.9003052264451981e-02</internalNodes>
          <leafValues>
            -7.7838951349258423e-01 1.1491518467664719e-01</leafValues></_>
        <_>
          <internalNodes>
            0 -1 230 3.4583039814606309e-04</internalNodes>
          <leafValues>
            -3.0289587378501892e-01 3.1819716095924377e-01</leafValues></_>
        <_>
          <internalNodes>
            0 -1 310 -1.3006198406219482e-01</internalNodes>
          <leafValues>
            -8.8969659805297852e-01 9.2627108097076416e-02</leafValues></_>
        <_>
          <internalNodes>
            0 -1 265 -9.3929376453161240e-03</internalNodes>
          <leafValues>
            -5.3485453128814697e-01 1.5487805008888245e-01</leafValues></_>
        <_>
          <internalNodes>
            0 -1 220 4.6224350808188319e-04</internalNodes>
          <leafValues>
            8.3784215152263641e-02 -8.0854129791259766e-01</leafValues></_>
        <_>
          <internalNodes>
            0 -1 12 -3.3527933061122894e-02</internalNodes>
          <leafValues>
            4.6245589852333069e-01 -1.9360932707786560e-01</leafValues></_>
        <_>
          <internalNodes>
            0 -1 60 -8.1571971531957388e-04</internalNodes>
          <leafValues>
            3.0959925055503845e-01 -2.7751848101615906e-01</leafValues></_>
        <_>
          <internalNodes>
            0 -1 6 2.6248123496770859e-02</internalNodes>
          <leafValues>
            -2.5086367130279541e-01 3.6620426177978516e-01</leafValues></_>
        <_>
          <internalNodes>
            0 -1 192 2.2103004157543182e-03</internalNodes>
          <leafValues>
            1.8954268097877502e-01 -4.8571228981018066e-01</leafValues></_>
        <_>
          <internalNodes>
            0 -1 268 -9.1487524332478642e-04</internalNodes>
          <leafValues>
            -9.6868038177490234e-01 7.0929378271102905e-02</leafValues></_>
        <_>
          <internalNodes>
            0 -1 354 2.1018253755755723e-04</internalNodes>
          <leafValues>
            -3.2269853353500366e-01 2.7375200390815735e-01</leafValues></_></weakClassifiers></_>
    <!-- stage 7 -->
    <_>
      <maxWeakCount>21</maxWeakCount>
      <stageThreshold>-1.3302414417266846e+00</stageThreshold>
      <weakClassifiers>
        <_>
          <internalNodes>
            0 -1 304 -2.4778593797236681e-04</internalNodes>
          <leafValues>
            3.0570903420448303e-01 -3.6323851346969604e-01</leafValues></_>
        <_>
          <internalNodes>
            0 -1 48 5.2984185516834259e-02</internalNodes>
          <leafValues>
            -1.9600795209407806e-01 6.2470728158950806e-01</leafValues></_>
        <_>
          <internalNodes>
            0 -1 71 4.7168659511953592e-04</internalNodes>
          <leafValues>
            -3.3179852366447449e-01 2.7920860052108765e-01</leafValues></_>
        <_>
          <internalNodes>
            0 -1 164 -5.6251650676131248e-05</internalNodes>
          <leafValues>
            -5.3510677814483643e-01 1.5375773608684540e-01</leafValues></_>
        <_>
          <internalNodes>
            0 -1 101 -1.4054273255169392e-02</internalNodes>
          <leafValues>
            -7.8030663728713989e-01 1.3055719435214996e-01</leafValues></_>
        <_>
          <internalNodes>
            0 -1 167 3.9380753878504038e-04</internalNodes>
          <leafValues>
            8.5861727595329285e-02 -8.9244765043258667e-01</leafValues></_>
        <_>
          <internalNodes>
            0 -1 328 -3.1891121761873364e-04</internalNodes>
          <leafValues>
            2.7143782377243042e-01 -3.1248828768730164e-01</leafValues></_>
        <_>
          <internalNodes>
            0 -1 369 -1.0433750227093697e-02</internalNodes>
          <leafValues>
            6.5135210752487183e-01 -1.4012797176837921e-01</leafValues></_>
        <_>
          <internalNodes>
            0 -1 29 -1.1952525377273560e-01</internalNodes>
          <leafValues>
            -7.1486157178878784e-01 1.3412766158580780e-01</leafValues></_>
        <_>
          <internalNodes>
            0 -1 165 -2.9594525694847107e-03</internalNodes>
          <leafValues>
            -8.3078891038894653e-01 8.9488148689270020e-02</leafValues></_>
        <_>
          <internalNodes>
            0 -1 373 -1.8425285816192627e-03</internalNodes>
          <leafValues>
            3.4428396821022034e-01 -2.7888381481170654e-01</leafValues></_>
        <_>
          <internalNodes>
            0 -1 141 -4.9550180847290903e-05</internalNodes>
          <leafValues>
            -4.6963632106781006e-01 1.8402709066867828e-01</leafValues></_>
        <_>
          <internalNodes>
            0 -1 334 -5.1795821636915207e-03</internalNodes>
          <leafValues>
            -7.0226651430130005e-01 9.9929764866828918e-02</leafValues></_>
        <_>
          <internalNodes>
            0 -1 260 -5.1105709280818701e-04</internalNodes>
          <leafValues>
            2.8575929999351501e-01 -2.8244367241859436e-01</leafValues></_>
        <_>
          <internalNodes>
            0 -1 175 5.6795671116560698e-04</internalNodes>
          <leafValues>
            8.3909705281257629e-02 -8.3083933591842651e-01</leafValues></_>
        <_>
          <internalNodes>
            0 -1 49 1.9707003957591951e-04</internalNodes>
          <leafValues>
            -2.9269689321517944e-01 2.6930841803550720e-01</leafValues></_>
        <_>
          <internalNodes>
            0 -1 370 7.6013337820768356e-03</internalNodes>
          <leafValues>
            -1.7185460031032562e-01 4.6062317490577698e-01</leafValues></_>
        <_>
          <internalNodes>
            0 -1 238 3.5141414264217019e-04</internalNodes>
          <leafValues>
            1.7267008125782013e-01 -4.8869499564170837e-01</leafValues></_>
        <_>
          <internalNodes>
            0 -1 122 -3.6682202480733395e-03</internalNodes>
          <leafValues>
            4.6444243192672729e-01 -1.7837503552436829e-01</leafValues></_>
        <_>
          <internalNodes>
            0 -1 177 3.8291025703074411e-05</internalNodes>
          <leafValues>
            1.8486598134040833e-01 -4.2300313711166382e-01</leafValues></_>
        <_>
          <internalNodes>
            0 -1 174 4.0832208469510078e-04</internalNodes>
          <leafValues>
            7.4381187558174133e-02 -9.1034036874771118e-01</leafValues></_></weakClassifiers></_>
    <!-- stage 8 -->
    <_>
      <maxWeakCount>23</maxWeakCount>
      <stageThreshold>-1.3688015937805176e+00</stageThreshold>
      <weakClassifiers>
        <_>
          <internalNodes>
            0 -1 226 -9.6558444201946259e-03</internalNodes>
          <leafValues>
            4.3087247014045715e-01 -2.5577688217163086e-01</leafValues></_>
        <_>
          <internalNodes>
            0 -1 307 -3.9629681850783527e-04</internalNodes>
          <leafValues>
            2.7675777673721313e-01 -4.3285840749740601e-01</leafValues></_>
        <_>
          <internalNodes>
            0 -1 362 -8.4654074162244797e-03</internalNodes>
          <leafValues>
            3.3999851346015930e-01 -2.3562364280223846e-01</leafValues></_>
        <_>
          <internalNodes>
            0 -1 292 -5.9047918766736984e-03</internalNodes>
          <leafValues>
            -6.0480380058288574e-01 1.3899493217468262e-01</leafValues></_>
        <_>
          <internalNodes>
            0 -1 234 5.9267898905090988e-05</internalNodes>
          <leafValues>
            1.9197700917720795e-01 -4.5944830775260925e-01</leafValues></_>
        <_>
          <internalNodes>
            0 -1 129 -9.5900576561689377e-03</internalNodes>
          <leafValues>
            5.5393964052200317e-01 -1.7958949506282806e-01</leafValues></_>
        <_>
          <internalNodes>
            0 -1 116 -3.0788309872150421e-02</internalNodes>
          <leafValues>
            -8.4049457311630249e-01 1.4179490506649017e-01</leafValues></_>
        <_>
          <internalNodes>
            0 -1 86 8.4665598114952445e-04</internalNodes>
          <leafValues>
            -2.3214535415172577e-01 3.9814195036888123e-01</leafValues></_>
        <_>
          <internalNodes>
            0 -1 268 4.6705757267773151e-04</internalNodes>
          <leafValues>
            1.4044275879859924e-01 -5.8635741472244263e-01</leafValues></_>
        <_>
          <internalNodes>
            0 -1 73 8.9441315503790975e-04</internalNodes>
          <leafValues>
            -2.5508636236190796e-01 3.1085193157196045e-01</leafValues></_>
        <_>
          <internalNodes>
            0 -1 267 -1.8478658050298691e-02</internalNodes>
          <leafValues>
            3.2225131988525391e-01 -2.6257514953613281e-01</leafValues></_>
        <_>
          <internalNodes>
            0 -1 144 7.3960446752607822e-04</internalNodes>
          <leafValues>
            1.5077915787696838e-01 -5.6730842590332031e-01</leafValues></_>
        <_>
          <internalNodes>
            0 -1 10 -1.8537089228630066e-01</internalNodes>
          <leafValues>
            -8.7388336658477783e-01 7.0299178361892700e-02</leafValues></_>
        <_>
          <internalNodes>
            0 -1 348 -5.3840931504964828e-03</internalNodes>
          <leafValues>
            -7.6725274324417114e-01 7.1665771305561066e-02</leafValues></_>
        <_>
          <internalNodes>
            0 -1 188 3.8905558176338673e-04</internalNodes>
          <leafValues>
            -2.5854861736297607e-01 3.0227240920066833e-01</leafValues></_>
        <_>
          <internalNodes>
            0 -1 272 -1.5710509615018964e-04</internalNodes>
          <leafValues>
            -5.3504782915115356e-01 1.3983023166656494e-01</leafValues></_>
        <_>
          <internalNodes>
            0 -1 128 -3.6462344229221344e-02</internalNodes>
          <leafValues>
            5.1345729827880859e-01 -1.5493685007095337e-01</leafValues></_>
        <_>
          <internalNodes>
            0 -1 150 -3.0142004834488034e-04</internalNodes>
          <leafValues>
            3.0606669187545776e-01 -2.4798557162284851e-01</leafValues></_>
        <_>
          <internalNodes>
            0 -1 41 -7.0703416131436825e-03</internalNodes>
          <leafValues>
            4.2038470506668091e-01 -1.7681849002838135e-01</leafValues></_>
        <_>
          <internalNodes>
            0 -1 37 1.5778500586748123e-02</internalNodes>
          <leafValues>
            -1.5396295487880707e-01 4.8000857234001160e-01</leafValues></_>
        <_>
          <internalNodes>
            0 -1 20 2.3949259519577026e-01</internalNodes>
          <leafValues>
            8.8748492300510406e-02 -9.1062784194946289e-01</leafValues></_>
        <_>
          <internalNodes>
            0 -1 47 3.5910360747948289e-04</internalNodes>
          <leafValues>
            -3.0611854791641235e-01 2.2459590435028076e-01</leafValues></_>
        <_>
          <internalNodes>
            0 -1 196 -2.9424829408526421e-03</internalNodes>
          <leafValues>
            -8.0069082975387573e-01 8.5003837943077087e-02</leafValues></_></weakClassifiers></_>
    <!-- stage 9 -->
    <_>
      <maxWeakCount>22</maxWeakCount>
      <stageThreshold>-1.3444923162460327e+00</stageThreshold>
      <weakClassifiers>
        <_>
          <internalNodes>
            0 -1 326 5.1776168402284384e-04</internalNodes>
          <leafValues>
            -4.3367347121238708e-01 2.7960526943206787e-01</leafValues></_>
        <_>
          <internalNodes>
            0 -1 52 8.9346989989280701e-03</internalNodes>
          <leafValues>
            -2.7054107189178467e-01 4.5699656009674072e-01</leafValues></_>
        <_>
          <internalNodes>
            0 -1 137 -2.4331809952855110e-02</internalNodes>
          <leafValues>
            -7.6927173137664795e-01 1.1077678203582764e-01</leafValues></_>
        <_>
          <internalNodes>
            0 -1 63 1.5821466149645858e-05</internalNodes>
          <leafValues>
            1.8639928102493286e-01 -4.9278485774993896e-01</leafValues></_>
        <_>
          <internalNodes>
            0 -1 275 -1.9715802045539021e-04</internalNodes>
          <leafValues>
            -7.1944606304168701e-01 1.3484001159667969e-01</leafValues></_>
        <_>
          <internalNodes>
            0 -1 346 -9.4618799630552530e-04</internalNodes>
          <leafValues>
            2.3724797368049622e-01 -3.4890052676200867e-01</leafValues></_>
        <_>
          <internalNodes>
            0 -1 103 -1.1445272248238325e-03</internalNodes>
          <leafValues>
            -7.1264231204986572e-01 1.0681749135255814e-01</leafValues></_>
        <_>
          <internalNodes>
            0 -1 222 -6.9497199729084969e-04</internalNodes>
          <leafValues>
            2.5141745805740356e-01 -3.0510881543159485e-01</leafValues></_>
        <_>
          <internalNodes>
            0 -1 327 1.5414524823427200e-02</internalNodes>
          <leafValues>
            -1.8058276176452637e-01 3.8162001967430115e-01</leafValues></_>
        <_>
          <internalNodes>
            0 -1 360 8.7654823437333107e-03</internalNodes>
          <leafValues>
            -1.7037074267864227e-01 6.0056167840957642e-01</leafValues></_>
        <_>
          <internalNodes>
            0 -1 176 -1.1985914170509204e-05</internalNodes>
          <leafValues>
            -4.3774521350860596e-01 1.9445480406284332e-01</leafValues></_>
        <_>
          <internalNodes>
            0 -1 79 6.1637298204004765e-03</internalNodes>
          <leafValues>
            1.4277909696102142e-01 -5.0213390588760376e-01</leafValues></_>
        <_>
          <internalNodes>
            0 -1 361 4.7583999112248421e-03</internalNodes>
          <leafValues>
            -1.9899442791938782e-01 4.3905943632125854e-01</leafValues></_>
        <_>
          <internalNodes>
            0 -1 219 -2.2688914032187313e-04</internalNodes>
          <leafValues>
            -8.6590200662612915e-01 9.9543437361717224e-02</leafValues></_>
        <_>
          <internalNodes>
            0 -1 309 -4.5251287519931793e-04</internalNodes>
          <leafValues>
            3.0344545841217041e-01 -2.4374514818191528e-01</leafValues></_>
        <_>
          <internalNodes>
            0 -1 194 -3.8451120257377625e-02</internalNodes>
          <leafValues>
            -8.0417340993881226e-01 7.3886111378669739e-02</leafValues></_>
        <_>
          <internalNodes>
            0 -1 138 -6.9287093356251717e-04</internalNodes>
          <leafValues>
            2.1530203521251678e-01 -3.4655338525772095e-01</leafValues></_>
        <_>
          <internalNodes>
            0 -1 186 -2.5643743574619293e-02</internalNodes>
          <leafValues>
            3.8925015926361084e-01 -2.0021609961986542e-01</leafValues></_>
        <_>
          <internalNodes>
            0 -1 368 -4.8081856220960617e-03</internalNodes>
          <leafValues>
            5.3624618053436279e-01 -1.4068472385406494e-01</leafValues></_>
        <_>
          <internalNodes>
            0 -1 343 5.3033456206321716e-02</internalNodes>
          <leafValues>
            1.0916832089424133e-01 -8.0206739902496338e-01</leafValues></_>
        <_>
          <internalNodes>
            0 -1 246 1.5461043221876025e-04</internalNodes>
          <leafValues>
            7.9743973910808563e-02 -6.4923769235610962e-01</leafValues></_>
        <_>
          <internalNodes>
            0 -1 149 -1.9077923148870468e-02</internalNodes>
          <leafValues>
            5.4049283266067505e-01 -1.3100598752498627e-01</leafValues></_></weakClassifiers></_>
    <!-- stage 10 -->
    <_>
      <maxWeakCount>22</maxWeakCount>
      <stageThreshold>-1.3819200992584229e+00</stageThreshold>
      <weakClassifiers>
        <_>
          <internalNodes>
            0 -1 289 2.9363663634285331e-04</internalNodes>
          <leafValues>
            -3.9415204524993896e-01 2.9432314634323120e-01</leafValues></_>
        <_>
          <internalNodes>
            0 -1 42 1.0285478830337524e-01</internalNodes>
          <leafValues>
            -1.5407346189022064e-01 6.6137856245040894e-01</leafValues></_>
        <_>
          <internalNodes>
            0 -1 324 -1.8921683658845723e-04</internalNodes>
          <leafValues>
            2.2495730221271515e-01 -5.3213065862655640e-01</leafValues></_>
        <_>
          <internalNodes>
            0 -1 316 -2.5604709517210722e-03</internalNodes>
          <leafValues>
            -6.2133610248565674e-01 1.2621176242828369e-01</leafValues></_>
        <_>
          <internalNodes>
            0 -1 280 8.0116857134271413e-05</internalNodes>
          <leafValues>
            1.8255850672721863e-01 -4.8335731029510498e-01</leafValues></_>
        <_>
          <internalNodes>
            0 -1 11 -5.5474378168582916e-02</internalNodes>
          <leafValues>
            6.0760092735290527e-01 -1.2448307871818542e-01</leafValues></_>
        <_>
          <internalNodes>
            0 -1 156 3.7224317202344537e-04</internalNodes>
          <leafValues>
            -3.4301364421844482e-01 2.7565085887908936e-01</leafValues></_>
        <_>
          <internalNodes>
            0 -1 0 3.9272315800189972e-02</internalNodes>
          <leafValues>
            -1.8262510001659393e-01 4.7906056046485901e-01</leafValues></_>
        <_>
          <internalNodes>
            0 -1 15 -2.4765469133853912e-02</internalNodes>
          <leafValues>
            -7.2330856323242188e-01 1.3478700816631317e-01</leafValues></_>
        <_>
          <internalNodes>
            0 -1 30 2.5443576276302338e-02</internalNodes>
          <leafValues>
            1.5799495577812195e-01 -5.6520336866378784e-01</leafValues></_>
        <_>
          <internalNodes>
            0 -1 84 -2.8411799576133490e-03</internalNodes>
          <leafValues>
            3.3415764570236206e-01 -2.5223380327224731e-01</leafValues></_>
        <_>
          <internalNodes>
            0 -1 349 3.1995361205190420e-03</internalNodes>
          <leafValues>
            1.1282547563314438e-01 -8.1610572338104248e-01</leafValues></_>
        <_>
          <internalNodes>
            0 -1 113 -5.2952108671888709e-04</internalNodes>
          <leafValues>
            2.1984590590000153e-01 -3.5408458113670349e-01</leafValues></_>
        <_>
          <internalNodes>
            0 -1 375 3.1185732223093510e-03</internalNodes>
          <leafValues>
            -2.7225393056869507e-01 3.1530067324638367e-01</leafValues></_>
        <_>
          <internalNodes>
            0 -1 68 -5.9832325205206871e-03</internalNodes>
          <leafValues>
            6.1351495981216431e-01 -1.6186943650245667e-01</leafValues></_>
        <_>
          <internalNodes>
            0 -1 125 7.0103071630001068e-03</internalNodes>
          <leafValues>
            -1.3012939691543579e-01 6.2631916999816895e-01</leafValues></_>
        <_>
          <internalNodes>
            0 -1 207 1.8409382028039545e-04</internalNodes>
          <leafValues>
            1.8989720940589905e-01 -5.1086843013763428e-01</leafValues></_>
        <_>
          <internalNodes>
            0 -1 321 -7.5146881863474846e-04</internalNodes>
          <leafValues>
            -4.8626220226287842e-01 1.5786062180995941e-01</leafValues></_>
        <_>
          <internalNodes>
            0 -1 22 7.2335428558290005e-04</internalNodes>
          <leafValues>
            -2.7822262048721313e-01 2.5812563300132751e-01</leafValues></_>
        <_>
          <internalNodes>
            0 -1 317 -1.0702136205509305e-03</internalNodes>
          <leafValues>
            -4.9732705950737000e-01 1.6532623767852783e-01</leafValues></_>
        <_>
          <internalNodes>
            0 -1 117 4.2109251808142290e-05</internalNodes>
          <leafValues>
            1.2703011929988861e-01 -5.6564879417419434e-01</leafValues></_>
        <_>
          <internalNodes>
            0 -1 28 1.0641878098249435e-01</internalNodes>
          <leafValues>
            1.1236729472875595e-01 -6.2223702669143677e-01</leafValues></_></weakClassifiers></_>
    <!-- stage 11 -->
    <_>
      <maxWeakCount>23</maxWeakCount>
      <stageThreshold>-1.3661167621612549e+00</stageThreshold>
      <weakClassifiers>
        <_>
          <internalNodes>
            0 -1 54 -3.4938946366310120e-02</internalNodes>
          <leafValues>
            4.2265194654464722e-01 -2.3981191217899323e-01</leafValues></_>
        <_>
          <internalNodes>
            0 -1 247 -6.6551577765494585e-04</internalNodes>
          <leafValues>
            2.9918488860130310e-01 -3.2226103544235229e-01</leafValues></_>
        <_>
          <internalNodes>
            0 -1 162 -2.0083375275135040e-03</internalNodes>
          <leafValues>
            -5.6138139963150024e-01 1.7484524846076965e-01</leafValues></_>
        <_>
          <internalNodes>
            0 -1 133 2.7463142760097980e-03</internalNodes>
          <leafValues>
            1.9412389397621155e-01 -5.6058269739151001e-01</leafValues></_>
        <_>
          <internalNodes>
            0 -1 300 -2.3939632228575647e-04</internalNodes>
          <leafValues>
            2.6549473404884338e-01 -3.0631318688392639e-01</leafValues></_>
        <_>
          <internalNodes>
            0 -1 25 -1.3814666867256165e-01</internalNodes>
          <leafValues>
            5.2386277914047241e-01 -1.9958634674549103e-01</leafValues></_>
        <_>
          <internalNodes>
            0 -1 147 1.0586658027023077e-03</internalNodes>
          <leafValues>
            1.3277298212051392e-01 -7.4109286069869995e-01</leafValues></_>
        <_>
          <internalNodes>
            0 -1 58 7.9247436951845884e-04</internalNodes>
          <leafValues>
            -2.8946483135223389e-01 2.7068182826042175e-01</leafValues></_>
        <_>
          <internalNodes>
            0 -1 59 -4.3078032322227955e-03</internalNodes>
          <leafValues>
            -4.5665875077247620e-01 1.8555955588817596e-01</leafValues></_>
        <_>
          <internalNodes>
            0 -1 258 -7.4088433757424355e-04</internalNodes>
          <leafValues>
            -5.8052915334701538e-01 1.6336658596992493e-01</leafValues></_>
        <_>
          <internalNodes>
            0 -1 45 4.8374375328421593e-03</internalNodes>
          <leafValues>
            -1.7495693266391754e-01 4.9814513325691223e-01</leafValues></_>
        <_>
          <internalNodes>
            0 -1 9 2.5579335168004036e-02</internalNodes>
          <leafValues>
            -1.1814807355403900e-01 5.6680315732955933e-01</leafValues></_>
        <_>
          <internalNodes>
            0 -1 53 3.0896399170160294e-02</internalNodes>
          <leafValues>
            -1.3192567229270935e-01 5.3213083744049072e-01</leafValues></_>
        <_>
          <internalNodes>
            0 -1 166 -1.9473170395940542e-03</internalNodes>
          <leafValues>
            -7.3585766553878784e-01 1.2529817223548889e-01</leafValues></_>
        <_>
          <internalNodes>
            0 -1 347 -1.3755124527961016e-03</internalNodes>
          <leafValues>
            3.2347479462623596e-01 -2.4277058243751526e-01</leafValues></_>
        <_>
          <internalNodes>
            0 -1 301 2.6240400620736182e-04</internalNodes>
          <leafValues>
            1.2326797842979431e-01 -6.3116967678070068e-01</leafValues></_>
        <_>
          <internalNodes>
            0 -1 352 4.1502714157104492e-04</internalNodes>
          <leafValues>
            -2.7924132347106934e-01 2.5276267528533936e-01</leafValues></_>
        <_>
          <internalNodes>
            0 -1 314 -3.4139063209295273e-02</internalNodes>
          <leafValues>
            -7.3666805028915405e-01 9.9964343011379242e-02</leafValues></_>
        <_>
          <internalNodes>
            0 -1 262 3.4765842428896576e-05</internalNodes>
          <leafValues>
            1.4142642915248871e-01 -4.6945670247077942e-01</leafValues></_>
        <_>
          <internalNodes>
            0 -1 32 -1.5069435350596905e-02</internalNodes>
          <leafValues>
            4.3983241915702820e-01 -1.9350282847881317e-01</leafValues></_>
        <_>
          <internalNodes>
            0 -1 210 -4.3372774962335825e-04</internalNodes>
          <leafValues>
            -5.7486355304718018e-01 1.6456775367259979e-01</leafValues></_>
        <_>
          <internalNodes>
            0 -1 282 -3.7760529085062444e-04</internalNodes>
          <leafValues>
            3.1276765465736389e-01 -2.6874214410781860e-01</leafValues></_>
        <_>
          <internalNodes>
            0 -1 312 1.2095019966363907e-01</internalNodes>
          <leafValues>
            -1.5588723123073578e-01 5.5246633291244507e-01</leafValues></_></weakClassifiers></_>
    <!-- stage 12 -->
    <_>
      <maxWeakCount>27</maxWeakCount>
      <stageThreshold>-1.5003759860992432e+00</stageThreshold>
      <weakClassifiers>
        <_>
          <internalNodes>
            0 -1 353 3.6411933251656592e-04</internalNodes>
          <leafValues>
            -3.3195877075195312e-01 3.1262135505676270e-01</leafValues></_>
        <_>
          <internalNodes>
            0 -1 293 -1.1899913261004258e-05</internalNodes>
          <leafValues>
            -5.0843089818954468e-01 1.7261752486228943e-01</leafValues></_>
        <_>
          <internalNodes>
            0 -1 333 2.7264943346381187e-03</internalNodes>
          <leafValues>
            1.3403250277042389e-01 -6.5009897947311401e-01</leafValues></_>
        <_>
          <internalNodes>
            0 -1 91 7.9604797065258026e-04</internalNodes>
          <leafValues>
            -2.6886141300201416e-01 3.4145203232765198e-01</leafValues></_>
        <_>
          <internalNodes>
            0 -1 202 -1.5521744498983026e-03</internalNodes>
          <leafValues>
            -6.1675798892974854e-01 1.0986568778753281e-01</leafValues></_>
        <_>
          <internalNodes>
            0 -1 216 -4.9814168596640229e-04</internalNodes>
          <leafValues>
            2.6309978961944580e-01 -3.0838403105735779e-01</leafValues></_>
        <_>
          <internalNodes>
            0 -1 136 -3.2676903065294027e-03</internalNodes>
          <leafValues>
            -7.7477163076400757e-01 9.7734063863754272e-02</leafValues></_>
        <_>
          <internalNodes>
            0 -1 200 2.4081536103039980e-03</internalNodes>
          <leafValues>
            1.2617605924606323e-01 -5.3791207075119019e-01</leafValues></_>
        <_>
          <internalNodes>
            0 -1 67 -6.6717043519020081e-03</internalNodes>
          <leafValues>
            5.0080841779708862e-01 -2.0469750463962555e-01</leafValues></_>
        <_>
          <internalNodes>
            0 -1 43 8.5128927603363991e-03</internalNodes>
          <leafValues>
            -1.9873198866844177e-01 3.7298995256423950e-01</leafValues></_>
        <_>
          <internalNodes>
            0 -1 44 -1.9498150795698166e-03</internalNodes>
          <leafValues>
            5.2541792392730713e-01 -1.2589100003242493e-01</leafValues></_>
        <_>
          <internalNodes>
            0 -1 78 -7.7518317848443985e-03</internalNodes>
          <leafValues>
            -5.8010309934616089e-01 1.4822851121425629e-01</leafValues></_>
        <_>
          <internalNodes>
            0 -1 205 6.1689032008871436e-05</internalNodes>
          <leafValues>
            1.6845376789569855e-01 -4.7429153323173523e-01</leafValues></_>
        <_>
          <internalNodes>
            0 -1 139 2.4667782709002495e-03</internalNodes>
          <leafValues>
            1.3726770877838135e-01 -5.7844591140747070e-01</leafValues></_>
        <_>
          <internalNodes>
            0 -1 180 1.3172989711165428e-03</internalNodes>
          <leafValues>
            -1.7968791723251343e-01 4.4526436924934387e-01</leafValues></_>
        <_>
          <internalNodes>
            0 -1 380 -4.1718338616192341e-03</internalNodes>
          <leafValues>
            3.5171180963516235e-01 -2.1751540899276733e-01</leafValues></_>
        <_>
          <internalNodes>
            0 -1 276 -2.3699401936028153e-04</internalNodes>
          <leafValues>
            -9.4749099016189575e-01 8.9516326785087585e-02</leafValues></_>
        <_>
          <internalNodes>
            0 -1 183 -2.5644537527114153e-04</internalNodes>
          <leafValues>
            2.8470969200134277e-01 -2.5822162628173828e-01</leafValues></_>
        <_>
          <internalNodes>
            0 -1 145 -1.6988480463624001e-02</internalNodes>
          <leafValues>
            -8.1655746698379517e-01 8.6575418710708618e-02</leafValues></_>
        <_>
          <internalNodes>
            0 -1 365 8.1443767994642258e-03</internalNodes>
          <leafValues>
            -1.4251145720481873e-01 5.1922184228897095e-01</leafValues></_>
        <_>
          <internalNodes>
            0 -1 287 2.4616640806198120e-01</internalNodes>
          <leafValues>
            -1.4210860431194305e-01 5.3545266389846802e-01</leafValues></_>
        <_>
          <internalNodes>
            0 -1 17 -4.9725517630577087e-02</internalNodes>
          <leafValues>
            6.9386899471282959e-01 -9.7332522273063660e-02</leafValues></_>
        <_>
          <internalNodes>
            0 -1 40 1.0485399514436722e-02</internalNodes>
          <leafValues>
            -1.0215231031179428e-01 6.2160241603851318e-01</leafValues></_>
        <_>
          <internalNodes>
            0 -1 179 -1.9467058882582933e-04</internalNodes>
          <leafValues>
            -5.9849685430526733e-01 1.2303722649812698e-01</leafValues></_>
        <_>
          <internalNodes>
            0 -1 356 3.3742719097062945e-04</internalNodes>
          <leafValues>
            -2.9024007916450500e-01 2.1312606334686279e-01</leafValues></_>
        <_>
          <internalNodes>
            0 -1 197 -7.6230042614042759e-03</internalNodes>
          <leafValues>
            -8.4488940238952637e-01 7.8151762485504150e-02</leafValues></_>
        <_>
          <internalNodes>
            0 -1 299 3.1660063541494310e-05</internalNodes>
          <leafValues>
            1.0460710525512695e-01 -5.7873797416687012e-01</leafValues></_></weakClassifiers></_>
    <!-- stage 13 -->
    <_>
      <maxWeakCount>26</maxWeakCount>
      <stageThreshold>-1.3276833295822144e+00</stageThreshold>
      <weakClassifiers>
        <_>
          <internalNodes>
            0 -1 332 2.5952229043468833e-04</internalNodes>
          <leafValues>
            -2.9600000381469727e-01 3.8057142496109009e-01</leafValues></_>
        <_>
          <internalNodes>
            0 -1 273 -2.9982847627252340e-04</internalNodes>
          <leafValues>
            2.4323642253875732e-01 -4.3211016058921814e-01</leafValues></_>
        <_>
          <internalNodes>
            0 -1 381 1.1465377174317837e-02</internalNodes>
          <leafValues>
            -2.1471345424652100e-01 3.7893196940422058e-01</leafValues></_>
        <_>
          <internalNodes>
            0 -1 168 -1.9645810243673623e-04</internalNodes>
          <leafValues>
            -5.6296485662460327e-01 1.5305805206298828e-01</leafValues></_>
        <_>
          <internalNodes>
            0 -1 134 3.8400362245738506e-03</internalNodes>
          <leafValues>
            1.4419859647750854e-01 -4.4006481766700745e-01</leafValues></_>
        <_>
          <internalNodes>
            0 -1 231 5.9303536545485258e-04</internalNodes>
          <leafValues>
            -2.7738034725189209e-01 3.1283450126647949e-01</leafValues></_>
        <_>
          <internalNodes>
            0 -1 318 -2.4670402053743601e-03</internalNodes>
          <leafValues>
            -6.5357744693756104e-01 1.4771430194377899e-01</leafValues></_>
        <_>
          <internalNodes>
            0 -1 72 -4.7586052096448839e-04</internalNodes>
          <leafValues>
            3.2030618190765381e-01 -2.5874105095863342e-01</leafValues></_>
        <_>
          <internalNodes>
            0 -1 263 2.2525793610839173e-05</internalNodes>
          <leafValues>
            1.1996863782405853e-01 -6.3535815477371216e-01</leafValues></_>
        <_>
          <internalNodes>
            0 -1 189 -3.4947186708450317e-02</internalNodes>
          <leafValues>
            -7.1296900510787964e-01 1.0316731035709381e-01</leafValues></_>
        <_>
          <internalNodes>
            0 -1 185 -2.2501815110445023e-03</internalNodes>
          <leafValues>
            4.8726257681846619e-01 -1.7238111793994904e-01</leafValues></_>
        <_>
          <internalNodes>
            0 -1 65 -1.8866409081965685e-03</internalNodes>
          <leafValues>
            3.2965594530105591e-01 -2.0685879886150360e-01</leafValues></_>
        <_>
          <internalNodes>
            0 -1 303 -1.9127628183923662e-04</internalNodes>
          <leafValues>
            -6.1767351627349854e-01 1.0368189960718155e-01</leafValues></_>
        <_>
          <internalNodes>
            0 -1 204 -2.4917124392231926e-05</internalNodes>
          <leafValues>
            -5.6193631887435913e-01 1.2486233562231064e-01</leafValues></_>
        <_>
          <internalNodes>
            0 -1 224 3.8165124715305865e-04</internalNodes>
          <leafValues>
            -2.6291301846504211e-01 2.7262437343597412e-01</leafValues></_>
        <_>
          <internalNodes>
            0 -1 255 -1.3086233288049698e-02</internalNodes>
          <leafValues>
            -3.9421775937080383e-01 1.5034332871437073e-01</leafValues></_>
        <_>
          <internalNodes>
            0 -1 342 -4.6815956011414528e-04</internalNodes>
          <leafValues>
            2.8706309199333191e-01 -2.3462180793285370e-01</leafValues></_>
        <_>
          <internalNodes>
            0 -1 98 4.3200496584177017e-03</internalNodes>
          <leafValues>
            2.1275676786899567e-01 -3.1984266638755798e-01</leafValues></_>
        <_>
          <internalNodes>
            0 -1 249 -4.4206432066857815e-03</internalNodes>
          <leafValues>
            4.4841983914375305e-01 -1.5636001527309418e-01</leafValues></_>
        <_>
          <internalNodes>
            0 -1 285 3.9616050198674202e-03</internalNodes>
          <leafValues>
            -1.3889293372631073e-01 4.7975078225135803e-01</leafValues></_>
        <_>
          <internalNodes>
            0 -1 259 -2.6372825232101604e-05</internalNodes>
          <leafValues>
            -3.4460580348968506e-01 1.9244422018527985e-01</leafValues></_>
        <_>
          <internalNodes>
            0 -1 56 -1.3640600442886353e-01</internalNodes>
          <leafValues>
            -5.6158691644668579e-01 1.1138408631086349e-01</leafValues></_>
        <_>
          <internalNodes>
            0 -1 339 5.0065584946423769e-04</internalNodes>
          <leafValues>
            -2.5564709305763245e-01 2.6405596733093262e-01</leafValues></_>
        <_>
          <internalNodes>
            0 -1 209 1.8447980983182788e-04</internalNodes>
          <leafValues>
            1.0348444432020187e-01 -6.7473262548446655e-01</leafValues></_>
        <_>
          <internalNodes>
            0 -1 206 -1.1508474563015625e-04</internalNodes>
          <leafValues>
            -5.3070026636123657e-01 1.0308049619197845e-01</leafValues></_>
        <_>
          <internalNodes>
            0 -1 233 9.6291978843510151e-04</internalNodes>
          <leafValues>
            1.0074790567159653e-01 -5.5889892578125000e-01</leafValues></_></weakClassifiers></_>
    <!-- stage 14 -->
    <_>
      <maxWeakCount>24</maxWeakCount>
      <stageThreshold>-1.3073409795761108e+00</stageThreshold>
      <weakClassifiers>
        <_>
          <internalNodes>
            0 -1 229 1.9857769075315446e-04</internalNodes>
          <leafValues>
            -3.0320149660110474e-01 3.4328359365463257e-01</leafValues></_>
        <_>
          <internalNodes>
            0 -1 55 -8.9960750192403793e-03</internalNodes>
          <leafValues>
            3.6623036861419678e-01 -2.4544662237167358e-01</leafValues></_>
        <_>
          <internalNodes>
            0 -1 64 3.7768503534607589e-04</internalNodes>
          <leafValues>
            -3.3104059100151062e-01 2.3225717246532440e-01</leafValues></_>
        <_>
          <internalNodes>
            0 -1 99 2.3257345674210228e-05</internalNodes>
          <leafValues>
            1.1918407678604126e-01 -5.7862287759780884e-01</leafValues></_>
        <_>
          <internalNodes>
            0 -1 126 -1.0386925935745239e-01</internalNodes>
          <leafValues>
            -6.7560863494873047e-01 1.1582314968109131e-01</leafValues></_>
        <_>
          <internalNodes>
            0 -1 93 1.8709335476160049e-02</internalNodes>
          <leafValues>
            7.7727317810058594e-02 -8.4677308797836304e-01</leafValues></_>
        <_>
          <internalNodes>
            0 -1 49 2.4283655511680990e-04</internalNodes>
          <leafValues>
            -2.7881866693496704e-01 2.4592269957065582e-01</leafValues></_>
        <_>
          <internalNodes>
            0 -1 83 9.7915052901953459e-04</internalNodes>
          <leafValues>
            1.1515071988105774e-01 -5.1662421226501465e-01</leafValues></_>
        <_>
          <internalNodes>
            0 -1 313 5.7281285990029573e-04</internalNodes>
          <leafValues>
            -1.8161284923553467e-01 3.8231128454208374e-01</leafValues></_>
        <_>
          <internalNodes>
            0 -1 363 -4.5132283121347427e-03</internalNodes>
          <leafValues>
            5.2070069313049316e-01 -1.6870330274105072e-01</leafValues></_>
        <_>
          <internalNodes>
            0 -1 266 3.0744202376808971e-05</internalNodes>
          <leafValues>
            1.5707224607467651e-01 -5.2989000082015991e-01</leafValues></_>
        <_>
          <internalNodes>
            0 -1 283 -6.1218785122036934e-03</internalNodes>
          <leafValues>
            2.7624461054801941e-01 -2.4566623568534851e-01</leafValues></_>
        <_>
          <internalNodes>
            0 -1 178 1.1792929581133649e-04</internalNodes>
          <leafValues>
            1.2281906604766846e-01 -5.7611835002899170e-01</leafValues></_>
        <_>
          <internalNodes>
            0 -1 95 1.5005774912424386e-04</internalNodes>
          <leafValues>
            2.2252698242664337e-01 -3.2316270470619202e-01</leafValues></_>
        <_>
          <internalNodes>
            0 -1 11 -4.8956267535686493e-02</internalNodes>
          <leafValues>
            5.3389489650726318e-01 -1.4867503941059113e-01</leafValues></_>
        <_>
          <internalNodes>
            0 -1 18 -1.1883065104484558e-02</internalNodes>
          <leafValues>
            3.6848399043083191e-01 -2.0597366988658905e-01</leafValues></_>
        <_>
          <internalNodes>
            0 -1 75 -3.8010627031326294e-03</internalNodes>
          <leafValues>
            -4.8332712054252625e-01 1.4998464286327362e-01</leafValues></_>
        <_>
          <internalNodes>
            0 -1 319 -3.1869753729552031e-04</internalNodes>
          <leafValues>
            2.5343689322471619e-01 -2.9808095097541809e-01</leafValues></_>
        <_>
          <internalNodes>
            0 -1 90 3.1934108119457960e-04</internalNodes>
          <leafValues>
            -2.2563561797142029e-01 3.0210572481155396e-01</leafValues></_>
        <_>
          <internalNodes>
            0 -1 330 8.9364852756261826e-03</internalNodes>
          <leafValues>
            1.4483429491519928e-01 -4.5196509361267090e-01</leafValues></_>
        <_>
          <internalNodes>
            0 -1 325 3.9799575461074710e-04</internalNodes>
          <leafValues>
            1.2480758130550385e-01 -4.8213234543800354e-01</leafValues></_>
        <_>
          <internalNodes>
            0 -1 82 5.7012308388948441e-04</internalNodes>
          <leafValues>
            -2.4487306177616119e-01 2.7606013417243958e-01</leafValues></_>
        <_>
          <internalNodes>
            0 -1 248 -5.3597654914483428e-04</internalNodes>
          <leafValues>
            3.0981102585792542e-01 -2.2808557748794556e-01</leafValues></_>
        <_>
          <internalNodes>
            0 -1 7 1.1851111799478531e-01</internalNodes>
          <leafValues>
            1.0425022244453430e-01 -6.3949656486511230e-01</leafValues></_></weakClassifiers></_>
    <!-- stage 15 -->
    <_>
      <maxWeakCount>24</maxWeakCount>
      <stageThreshold>-1.2711542844772339e+00</stageThreshold>
      <weakClassifiers>
        <_>
          <internalNodes>
            0 -1 46 5.4430868476629257e-04</internalNodes>
          <leafValues>
            -3.1504258513450623e-01 3.5312831401824951e-01</leafValues></_>
        <_>
          <internalNodes>
            0 -1 85 -4.0641627856530249e-04</internalNodes>
          <leafValues>
            2.6236465573310852e-01 -3.9238849282264709e-01</leafValues></_>
        <_>
          <internalNodes>
            0 -1 335 -3.9125763578340411e-05</internalNodes>
          <leafValues>
            -4.9084615707397461e-01 1.8404965102672577e-01</leafValues></_>
        <_>
          <internalNodes>
            0 -1 212 -1.9053451251238585e-04</internalNodes>
          <leafValues>
            -5.6112349033355713e-01 1.7533197999000549e-01</leafValues></_>
        <_>
          <internalNodes>
            0 -1 109 -8.2066226750612259e-03</internalNodes>
          <leafValues>
            -8.5371005535125732e-01 7.8228928148746490e-02</leafValues></_>
        <_>
          <internalNodes>
            0 -1 160 -1.1256253346800804e-03</internalNodes>
          <leafValues>
            2.5834050774574280e-01 -2.9529315233230591e-01</leafValues></_>
        <_>
          <internalNodes>
            0 -1 382 -3.3358600921928883e-03</internalNodes>
          <leafValues>
            3.1757271289825439e-01 -2.5231003761291504e-01</leafValues></_>
        <_>
          <internalNodes>
            0 -1 243 2.3798538313712925e-04</internalNodes>
          <leafValues>
            1.3359440863132477e-01 -6.8623518943786621e-01</leafValues></_>
        <_>
          <internalNodes>
            0 -1 340 2.7661491913022473e-05</internalNodes>
          <leafValues>
            1.5201024711132050e-01 -5.3935307264328003e-01</leafValues></_>
        <_>
          <internalNodes>
            0 -1 372 1.4522050041705370e-03</internalNodes>
          <leafValues>
            -1.7523773014545441e-01 4.8879519104957581e-01</leafValues></_>
        <_>
          <internalNodes>
            0 -1 198 7.8977621160447598e-04</internalNodes>
          <leafValues>
            -1.2463183701038361e-01 5.1826107501983643e-01</leafValues></_>
        <_>
          <internalNodes>
            0 -1 110 2.8237833175808191e-03</internalNodes>
          <leafValues>
            1.1811397969722748e-01 -6.2291955947875977e-01</leafValues></_>
        <_>
          <internalNodes>
            0 -1 336 -4.9907647073268890e-02</internalNodes>
          <leafValues>
            -7.9391455650329590e-01 7.2043776512145996e-02</leafValues></_>
        <_>
          <internalNodes>
            0 -1 94 3.3749055000953376e-04</internalNodes>
          <leafValues>
            -3.0560380220413208e-01 2.2260089218616486e-01</leafValues></_>
        <_>
          <internalNodes>
            0 -1 121 5.9012264013290405e-02</internalNodes>
          <leafValues>
            -1.4296026527881622e-01 5.3291642665863037e-01</leafValues></_>
        <_>
          <internalNodes>
            0 -1 1 7.9299686476588249e-03</internalNodes>
          <leafValues>
            -1.3985928893089294e-01 5.2375179529190063e-01</leafValues></_>
        <_>
          <internalNodes>
            0 -1 257 2.1132347173988819e-03</internalNodes>
          <leafValues>
            1.1507580429315567e-01 -6.6039586067199707e-01</leafValues></_>
        <_>
          <internalNodes>
            0 -1 112 -9.2031121312174946e-05</internalNodes>
          <leafValues>
            3.0234301090240479e-01 -2.4710647761821747e-01</leafValues></_>
        <_>
          <internalNodes>
            0 -1 131 -2.3004645481705666e-03</internalNodes>
          <leafValues>
            -6.9052153825759888e-01 1.0383574664592743e-01</leafValues></_>
        <_>
          <internalNodes>
            0 -1 123 -1.2593304272741079e-03</internalNodes>
          <leafValues>
            3.4318086504936218e-01 -2.0130814611911774e-01</leafValues></_>
        <_>
          <internalNodes>
            0 -1 218 -2.2933445870876312e-04</internalNodes>
          <leafValues>
            -4.5903226733207703e-01 1.3589814305305481e-01</leafValues></_>
        <_>
          <internalNodes>
            0 -1 80 3.9872364141047001e-05</internalNodes>
          <leafValues>
            1.3219454884529114e-01 -5.3573817014694214e-01</leafValues></_>
        <_>
          <internalNodes>
            0 -1 294 -1.9104293314740062e-03</internalNodes>
          <leafValues>
            -4.4671282172203064e-01 1.4431704580783844e-01</leafValues></_>
        <_>
          <internalNodes>
            0 -1 155 -4.8623140901327133e-03</internalNodes>
          <leafValues>
            6.7482680082321167e-01 -1.0284461081027985e-01</leafValues></_></weakClassifiers></_>
    <!-- stage 16 -->
    <_>
      <maxWeakCount>26</maxWeakCount>
      <stageThreshold>-1.2855032682418823e+00</stageThreshold>
      <weakClassifiers>
        <_>
          <internalNodes>
            0 -1 51 4.1262008016929030e-04</internalNodes>
          <leafValues>
            -3.7242129445075989e-01 3.1788691878318787e-01</leafValues></_>
        <_>
          <internalNodes>
            0 -1 70 -3.2171313068829477e-04</internalNodes>
          <leafValues>
            2.7966427803039551e-01 -3.6948257684707642e-01</leafValues></_>
        <_>
          <internalNodes>
            0 -1 199 -1.1969914194196463e-03</internalNodes>
          <leafValues>
            2.7554410696029663e-01 -3.6134052276611328e-01</leafValues></_>
        <_>
          <internalNodes>
            0 -1 132 -1.2654694914817810e-01</internalNodes>
          <leafValues>
            4.9805182218551636e-01 -1.6571003198623657e-01</leafValues></_>
        <_>
          <internalNodes>
            0 -1 350 1.0829198799910955e-05</internalNodes>
          <leafValues>
            1.4819182455539703e-01 -4.6945866942405701e-01</leafValues></_>
        <_>
          <internalNodes>
            0 -1 239 1.0068026313092560e-04</internalNodes>
          <leafValues>
            1.2731868028640747e-01 -6.7975383996963501e-01</leafValues></_>
        <_>
          <internalNodes>
            0 -1 239 -1.3908557593822479e-04</internalNodes>
          <leafValues>
            -6.7836153507232666e-01 1.2448524683713913e-01</leafValues></_>
        <_>
          <internalNodes>
            0 -1 308 5.9146550484001637e-04</internalNodes>
          <leafValues>
            -2.7633094787597656e-01 2.7667173743247986e-01</leafValues></_>
        <_>
          <internalNodes>
            0 -1 288 1.6533419257029891e-03</internalNodes>
          <leafValues>
            -2.3633767664432526e-01 3.2927504181861877e-01</leafValues></_>
        <_>
          <internalNodes>
            0 -1 358 -6.3580311834812164e-03</internalNodes>
          <leafValues>
            5.6275486946105957e-01 -1.2604644894599915e-01</leafValues></_>
        <_>
          <internalNodes>
            0 -1 13 1.8148972094058990e-01</internalNodes>
          <leafValues>
            1.0279799997806549e-01 -7.4069154262542725e-01</leafValues></_>
        <_>
          <internalNodes>
            0 -1 366 8.5402540862560272e-03</internalNodes>
          <leafValues>
            1.4055633544921875e-01 -5.7156395912170410e-01</leafValues></_>
        <_>
          <internalNodes>
            0 -1 143 -7.2239609435200691e-03</internalNodes>
          <leafValues>
            -5.3915196657180786e-01 1.3623638451099396e-01</leafValues></_>
        <_>
          <internalNodes>
            0 -1 379 -4.8402193933725357e-03</internalNodes>
          <leafValues>
            3.6883839964866638e-01 -2.0471483469009399e-01</leafValues></_>
        <_>
          <internalNodes>
            0 -1 344 -6.2473788857460022e-03</internalNodes>
          <leafValues>
            6.2064969539642334e-01 -1.2457811832427979e-01</leafValues></_>
        <_>
          <internalNodes>
            0 -1 295 -1.1526714843057562e-05</internalNodes>
          <leafValues>
            -5.2128684520721436e-01 1.7292143404483795e-01</leafValues></_>
        <_>
          <internalNodes>
            0 -1 284 -3.1714729266241193e-04</internalNodes>
          <leafValues>
            2.9954251646995544e-01 -2.3114766180515289e-01</leafValues></_>
        <_>
          <internalNodes>
            0 -1 290 1.3263669097796082e-03</internalNodes>
          <leafValues>
            -3.5223215818405151e-01 1.9051079452037811e-01</leafValues></_>
        <_>
          <internalNodes>
            0 -1 306 9.5971510745584965e-05</internalNodes>
          <leafValues>
            1.5677788853645325e-01 -4.5553061366081238e-01</leafValues></_>
        <_>
          <internalNodes>
            0 -1 286 5.2229030989110470e-03</internalNodes>
          <leafValues>
            -1.3459111750125885e-01 6.4807170629501343e-01</leafValues></_>
        <_>
          <internalNodes>
            0 -1 4 9.1555435210466385e-03</internalNodes>
          <leafValues>
            -1.5997464954853058e-01 4.0472432971000671e-01</leafValues></_>
        <_>
          <internalNodes>
            0 -1 159 3.9476761594414711e-04</internalNodes>
          <leafValues>
            -2.1626406908035278e-01 3.2735082507133484e-01</leafValues></_>
        <_>
          <internalNodes>
            0 -1 329 5.1636528223752975e-02</internalNodes>
          <leafValues>
            1.1039505153894424e-01 -7.1019214391708374e-01</leafValues></_>
        <_>
          <internalNodes>
            0 -1 97 -3.2042426755651832e-04</internalNodes>
          <leafValues>
            3.9222422242164612e-01 -1.8474629521369934e-01</leafValues></_>
        <_>
          <internalNodes>
            0 -1 161 2.0299102179706097e-03</internalNodes>
          <leafValues>
            1.1390478909015656e-01 -7.0396816730499268e-01</leafValues></_>
        <_>
          <internalNodes>
            0 -1 253 4.4365087524056435e-03</internalNodes>
          <leafValues>
            -1.6463375091552734e-01 4.6086025238037109e-01</leafValues></_></weakClassifiers></_>
    <!-- stage 17 -->
    <_>
      <maxWeakCount>24</maxWeakCount>
      <stageThreshold>-1.4413076639175415e+00</stageThreshold>
      <weakClassifiers>
        <_>
          <internalNodes>
            0 -1 74 -1.0111526353284717e-03</internalNodes>
          <leafValues>
            3.3528837561607361e-01 -3.5107472538948059e-01</leafValues></_>
        <_>
          <internalNodes>
            0 -1 34 -1.6387309879064560e-03</internalNodes>
          <leafValues>
            3.2979652285575867e-01 -3.6081382632255554e-01</leafValues></_>
        <_>
          <internalNodes>
            0 -1 351 5.6724122259765863e-05</internalNodes>
          <leafValues>
            2.1237504482269287e-01 -4.6894931793212891e-01</leafValues></_>
        <_>
          <internalNodes>
            0 -1 21 7.0035852491855621e-02</internalNodes>
          <leafValues>
            -2.2083158791065216e-01 4.7620606422424316e-01</leafValues></_>
        <_>
          <internalNodes>
            0 -1 213 -1.0667878086678684e-04</internalNodes>
          <leafValues>
            -6.8482500314712524e-01 1.3187241554260254e-01</leafValues></_>
        <_>
          <internalNodes>
            0 -1 108 -3.3730826544342563e-05</internalNodes>
          <leafValues>
            1.8253982067108154e-01 -4.0941506624221802e-01</leafValues></_>
        <_>
          <internalNodes>
            0 -1 190 -2.3548433091491461e-03</internalNodes>
          <leafValues>
            -5.4435229301452637e-01 1.8727606534957886e-01</leafValues></_>
        <_>
          <internalNodes>
            0 -1 242 -1.3989782019052655e-04</internalNodes>
          <leafValues>
            -6.3407951593399048e-01 9.8535820841789246e-02</leafValues></_>
        <_>
          <internalNodes>
            0 -1 169 -8.1087613943964243e-04</internalNodes>
          <leafValues>
            2.5263056159019470e-01 -3.9595454931259155e-01</leafValues></_>
        <_>
          <internalNodes>
            0 -1 193 1.7792467027902603e-02</internalNodes>
          <leafValues>
            7.1419946849346161e-02 -7.8776925802230835e-01</leafValues></_>
        <_>
          <internalNodes>
            0 -1 291 -1.7832392826676369e-02</internalNodes>
          <leafValues>
            -8.3223640918731689e-01 8.2826815545558929e-02</leafValues></_>
        <_>
          <internalNodes>
            0 -1 278 5.0386078655719757e-03</internalNodes>
          <leafValues>
            -1.4249914884567261e-01 6.4907336235046387e-01</leafValues></_>
        <_>
          <internalNodes>
            0 -1 16 1.3205304276198149e-03</internalNodes>
          <leafValues>
            -1.3929156959056854e-01 5.7228761911392212e-01</leafValues></_>
        <_>
          <internalNodes>
            0 -1 124 7.8885222319513559e-04</internalNodes>
          <leafValues>
            -1.6489785909652710e-01 4.7890374064445496e-01</leafValues></_>
        <_>
          <internalNodes>
            0 -1 88 -2.8853225521743298e-03</internalNodes>
          <leafValues>
            5.6761670112609863e-01 -1.8461927771568298e-01</leafValues></_>
        <_>
          <internalNodes>
            0 -1 355 -1.0647220733517315e-05</internalNodes>
          <leafValues>
            -4.6880355477333069e-01 2.0394144952297211e-01</leafValues></_>
        <_>
          <internalNodes>
            0 -1 36 8.2140676677227020e-03</internalNodes>
          <leafValues>
            -1.3414144515991211e-01 6.6090226173400879e-01</leafValues></_>
        <_>
          <internalNodes>
            0 -1 8 1.4748856483493000e-04</internalNodes>
          <leafValues>
            -2.1856676042079926e-01 3.4532871842384338e-01</leafValues></_>
        <_>
          <internalNodes>
            0 -1 378 4.8268644604831934e-04</internalNodes>
          <leafValues>
            -1.7784850299358368e-01 4.0836322307586670e-01</leafValues></_>
        <_>
          <internalNodes>
            0 -1 211 2.0285099744796753e-03</internalNodes>
          <leafValues>
            1.6464842855930328e-01 -4.6627840399742126e-01</leafValues></_>
        <_>
          <internalNodes>
            0 -1 135 -2.7488982304930687e-03</internalNodes>
          <leafValues>
            5.9053474664688110e-01 -1.5148839354515076e-01</leafValues></_>
        <_>
          <internalNodes>
            0 -1 112 -2.8119992930442095e-04</internalNodes>
          <leafValues>
            4.2974260449409485e-01 -1.7436483502388000e-01</leafValues></_>
        <_>
          <internalNodes>
            0 -1 296 -3.9135995320975780e-03</internalNodes>
          <leafValues>
            -6.3087117671966553e-01 1.5025649964809418e-01</leafValues></_>
        <_>
          <internalNodes>
            0 -1 371 -2.6493426412343979e-03</internalNodes>
          <leafValues>
            3.6510372161865234e-01 -2.1708892285823822e-01</leafValues></_></weakClassifiers></_>
    <!-- stage 18 -->
    <_>
      <maxWeakCount>22</maxWeakCount>
      <stageThreshold>-1.3871672153472900e+00</stageThreshold>
      <weakClassifiers>
        <_>
          <internalNodes>
            0 -1 279 3.8508977741003036e-04</internalNodes>
          <leafValues>
            -3.1597846746444702e-01 3.9729118347167969e-01</leafValues></_>
        <_>
          <internalNodes>
            0 -1 269 1.2186000822111964e-04</internalNodes>
          <leafValues>
            1.9341689348220825e-01 -5.9190791845321655e-01</leafValues></_>
        <_>
          <internalNodes>
            0 -1 208 -1.8654330051504076e-04</internalNodes>
          <leafValues>
            -5.1926141977310181e-01 2.4311718344688416e-01</leafValues></_>
        <_>
          <internalNodes>
            0 -1 35 1.4830709551461041e-04</internalNodes>
          <leafValues>
            -3.7990525364875793e-01 3.0977034568786621e-01</leafValues></_>
        <_>
          <internalNodes>
            0 -1 14 3.5298235714435577e-02</internalNodes>
          <leafValues>
            -2.8516206145286560e-01 3.4205636382102966e-01</leafValues></_>
        <_>
          <internalNodes>
            0 -1 157 4.1536679491400719e-03</internalNodes>
          <leafValues>
            2.8470638394355774e-01 -4.3787589669227600e-01</leafValues></_>
        <_>
          <internalNodes>
            0 -1 158 -2.4946392513811588e-03</internalNodes>
          <leafValues>
            -7.9548448324203491e-01 1.2479209899902344e-01</leafValues></_>
        <_>
          <internalNodes>
            0 -1 33 -1.5449267812073231e-03</internalNodes>
          <leafValues>
            -4.8035955429077148e-01 1.8702268600463867e-01</leafValues></_>
        <_>
          <internalNodes>
            0 -1 274 1.5275852056220174e-03</internalNodes>
          <leafValues>
            -3.8597512245178223e-01 2.5465583801269531e-01</leafValues></_>
        <_>
          <internalNodes>
            0 -1 256 9.2681683599948883e-04</internalNodes>
          <leafValues>
            -3.3677756786346436e-01 3.3898749947547913e-01</leafValues></_>
        <_>
          <internalNodes>
            0 -1 154 -6.1572674894705415e-04</internalNodes>
          <leafValues>
            -5.6001377105712891e-01 1.9295258820056915e-01</leafValues></_>
        <_>
          <internalNodes>
            0 -1 26 -8.6342021822929382e-03</internalNodes>
          <leafValues>
            4.3904834985733032e-01 -2.3758140206336975e-01</leafValues></_>
        <_>
          <internalNodes>
            0 -1 203 3.1539332121610641e-04</internalNodes>
          <leafValues>
            1.4422446489334106e-01 -6.8842089176177979e-01</leafValues></_>
        <_>
          <internalNodes>
            0 -1 142 -6.9680228829383850e-02</internalNodes>
          <leafValues>
            -7.8672105073928833e-01 1.1946980655193329e-01</leafValues></_>
        <_>
          <internalNodes>
            0 -1 225 -2.8888150118291378e-03</internalNodes>
          <leafValues>
            6.7788696289062500e-01 -1.5373535454273224e-01</leafValues></_>
        <_>
          <internalNodes>
            0 -1 19 1.4850194752216339e-01</internalNodes>
          <leafValues>
            -1.2017764896154404e-01 7.7551233768463135e-01</leafValues></_>
        <_>
          <internalNodes>
            0 -1 181 3.2814550650073215e-05</internalNodes>
          <leafValues>
            2.6095974445343018e-01 -4.1805309057235718e-01</leafValues></_>
        <_>
          <internalNodes>
            0 -1 357 3.7735662772320211e-04</internalNodes>
          <leafValues>
            -1.9186365604400635e-01 5.9208226203918457e-01</leafValues></_>
        <_>
          <internalNodes>
            0 -1 140 -2.4647370446473360e-04</internalNodes>
          <leafValues>
            5.5803143978118896e-01 -1.4672020077705383e-01</leafValues></_>
        <_>
          <internalNodes>
            0 -1 163 1.7123471479862928e-04</internalNodes>
          <leafValues>
            1.9764275848865509e-01 -5.4706144332885742e-01</leafValues></_>
        <_>
          <internalNodes>
            0 -1 376 -1.1199485510587692e-02</internalNodes>
          <leafValues>
            5.2965629100799561e-01 -2.0940142869949341e-01</leafValues></_>
        <_>
          <internalNodes>
            0 -1 96 5.7474030181765556e-03</internalNodes>
          <leafValues>
            1.9055236876010895e-01 -5.6304913759231567e-01</leafValues></_></weakClassifiers></_>
    <!-- stage 19 -->
    <_>
      <maxWeakCount>14</maxWeakCount>
      <stageThreshold>-1.5421780347824097e+00</stageThreshold>
      <weakClassifiers>
        <_>
          <internalNodes>
            0 -1 304 -4.4655814417637885e-04</internalNodes>
          <leafValues>
            5.1203501224517822e-01 -4.3093922734260559e-01</leafValues></_>
        <_>
          <internalNodes>
            0 -1 187 2.8926128149032593e-01</internalNodes>
          <leafValues>
            -2.1621069312095642e-01 7.0771574974060059e-01</leafValues></_>
        <_>
          <internalNodes>
            0 -1 182 -8.2373240729793906e-04</internalNodes>
          <leafValues>
            4.6248453855514526e-01 -3.2507833838462830e-01</leafValues></_>
        <_>
          <internalNodes>
            0 -1 223 -2.7209464460611343e-03</internalNodes>
          <leafValues>
            -7.1735650300979614e-01 2.6271313428878784e-01</leafValues></_>
        <_>
          <internalNodes>
            0 -1 221 6.6784123191609979e-04</internalNodes>
          <leafValues>
            -2.7772319316864014e-01 6.1156266927719116e-01</leafValues></_>
        <_>
          <internalNodes>
            0 -1 69 2.3704927298240364e-04</internalNodes>
          <leafValues>
            -2.8380253911018372e-01 4.9080398678779602e-01</leafValues></_>
        <_>
          <internalNodes>
            0 -1 377 -1.1341276112943888e-03</internalNodes>
          <leafValues>
            8.3605253696441650e-01 -1.5305943787097931e-01</leafValues></_>
        <_>
          <internalNodes>
            0 -1 241 8.4683320892509073e-05</internalNodes>
          <leafValues>
            2.9127275943756104e-01 -5.2278995513916016e-01</leafValues></_>
        <_>
          <internalNodes>
            0 -1 90 2.0554763614200056e-04</internalNodes>
          <leafValues>
            -3.8429179787635803e-01 4.4680634140968323e-01</leafValues></_>
        <_>
          <internalNodes>
            0 -1 3 -4.3968297541141510e-03</internalNodes>
          <leafValues>
            7.0163631439208984e-01 -2.5282108783721924e-01</leafValues></_>
        <_>
          <internalNodes>
            0 -1 66 -5.4617961868643761e-03</internalNodes>
          <leafValues>
            4.4481390714645386e-01 -2.9495880007743835e-01</leafValues></_>
        <_>
          <internalNodes>
            0 -1 24 -1.1059744283556938e-02</internalNodes>
          <leafValues>
            9.2858296632766724e-01 -1.7795443534851074e-01</leafValues></_>
        <_>
          <internalNodes>
            0 -1 2 4.8474064096808434e-03</internalNodes>
          <leafValues>
            -9.2907570302486420e-02 8.9378631114959717e-01</leafValues></_>
        <_>
          <internalNodes>
            0 -1 38 -6.6816573962569237e-04</internalNodes>
          <leafValues>
            5.9506422281265259e-01 -1.9311064481735229e-01</leafValues></_></weakClassifiers></_></stages>
  <features>
    <_>
      <rects>
        <_>
          0 0 18 6 -1.</_>
        <_>
          0 3 18 3 2.</_></rects>
      <tilted>0</tilted></_>
    <_>
      <rects>
        <_>
          0 1 2 18 -1.</_>
        <_>
          0 1 1 9 2.</_>
        <_>
          1 10 1 9 2.</_></rects>
      <tilted>0</tilted></_>
    <_>
      <rects>
        <_>
          0 7 3 8 -1.</_>
        <_>
          1 7 1 8 3.</_></rects>
      <tilted>0</tilted></_>
    <_>
      <rects>
        <_>
          0 7 3 11 -1.</_>
        <_>
          1 7 1 11 3.</_></rects>
      <tilted>0</tilted></_>
    <_>
      <rects>
        <_>
          0 7 4 9 -1.</_>
        <_>
          2 7 2 9 2.</_></rects>
      <tilted>0</tilted></_>
    <_>
      <rects>
        <_>
          0 8 4 8 -1.</_>
        <_>
          1 8 2 8 2.</_></rects>
      <tilted>0</tilted></_>
    <_>
      <rects>
        <_>
          0 8 24 4 -1.</_>
        <_>
          6 8 12 4 2.</_></rects>
      <tilted>0</tilted></_>
    <_>
      <rects>
        <_>
          0 8 24 16 -1.</_>
        <_>
          0 8 12 8 2.</_>
        <_>
          12 16 12 8 2.</_></rects>
      <tilted>0</tilted></_>
    <_>
      <rects>
        <_>
          0 15 2 8 -1.</_>
        <_>
          0 15 1 4 2.</_>
        <_>
          1 19 1 4 2.</_></rects>
      <tilted>0</tilted></_>
    <_>
      <rects>
        <_>
          1 1 16 4 -1.</_>
        <_>
          1 1 8 2 2.</_>
        <_>
          9 3 8 2 2.</_></rects>
      <tilted>0</tilted></_>
    <_>
      <rects>
        <_>
          1 2 22 12 -1.</_>
        <_>
          12 2 11 12 2.</_></rects>
      <tilted>0</tilted></_>
    <_>
      <rects>
        <_>
          2 0 12 2 -1.</_>
        <_>
          6 4 4 2 3.</_></rects>
      <tilted>1</tilted></_>
    <_>
      <rects>
        <_>
          2 0 9 9 -1.</_>
        <_>
          2 3 9 3 3.</_></rects>
      <tilted>0</tilted></_>
    <_>
      <rects>
        <_>
          2 4 22 18 -1.</_>
        <_>
          2 13 22 9 2.</_></rects>
      <tilted>0</tilted></_>
    <_>
      <rects>
        <_>
          2 7 20 4 -1.</_>
        <_>
          7 7 10 4 2.</_></rects>
      <tilted>0</tilted></_>
    <_>
      <rects>
        <_>
          2 11 20 3 -1.</_>
        <_>
          12 11 10 3 2.</_></rects>
      <tilted>0</tilted></_>
    <_>
      <rects>
        <_>
          2 22 4 2 -1.</_>
        <_>
          2 23 4 1 2.</_></rects>
      <tilted>0</tilted></_>
    <_>
      <rects>
        <_>
          3 0 8 3 -1.</_>
        <_>
          5 2 4 3 2.</_></rects>
      <tilted>1</tilted></_>
    <_>
      <rects>
        <_>
          3 0 6 3 -1.</_>
        <_>
          3 0 3 3 2.</_></rects>
      <tilted>1</tilted></_>
    <_>
      <rects>
        <_>
          3 0 6 21 -1.</_>
        <_>
          3 7 6 7 3.</_></rects>
      <tilted>0</tilted></_>
    <_>
      <rects>
        <_>
          3 0 12 24 -1.</_>
        <_>
          3 12 12 12 2.</_></rects>
      <tilted>0</tilted></_>
    <_>
      <rects>
        <_>
          3 5 20 6 -1.</_>
        <_>
          8 5 10 6 2.</_></rects>
      <tilted>0</tilted></_>
    <_>
      <rects>
        <_>
          3 12 2 4 -1.</_>
        <_>
          4 12 1 4 2.</_></rects>
      <tilted>0</tilted></_>
    <_>
      <rects>
        <_>
          3 12 6 2 -1.</_>
        <_>
          5 12 2 2 3.</_></rects>
      <tilted>0</tilted></_>
    <_>
      <rects>
        <_>
          3 12 10 2 -1.</_>
        <_>
          3 12 10 1 2.</_></rects>
      <tilted>1</tilted></_>
    <_>
      <rects>
        <_>
          3 13 19 10 -1.</_>
        <_>
          3 18 19 5 2.</_></rects>
      <tilted>0</tilted></_>
    <_>
      <rects>
        <_>
          3 16 6 3 -1.</_>
        <_>
          5 17 2 1 9.</_></rects>
      <tilted>0</tilted></_>
    <_>
      <rects>
        <_>
          4 0 8 4 -1.</_>
        <_>
          6 2 4 4 2.</_></rects>
      <tilted>1</tilted></_>
    <_>
      <rects>
        <_>
          4 0 20 4 -1.</_>
        <_>
          4 0 10 4 2.</_></rects>
      <tilted>1</tilted></_>
    <_>
      <rects>
        <_>
          4 3 12 18 -1.</_>
        <_>
          4 12 12 9 2.</_></rects>
      <tilted>0</tilted></_>
    <_>
      <rects>
        <_>
          4 10 18 6 -1.</_>
        <_>
          13 10 9 6 2.</_></rects>
      <tilted>0</tilted></_>
    <_>
      <rects>
        <_>
          4 11 4 4 -1.</_>
        <_>
          5 11 2 4 2.</_></rects>
      <tilted>0</tilted></_>
    <_>
      <rects>
        <_>
          4 11 6 4 -1.</_>
        <_>
          3 12 6 2 2.</_></rects>
      <tilted>1</tilted></_>
    <_>
      <rects>
        <_>
          4 11 15 3 -1.</_>
        <_>
          4 12 15 1 3.</_></rects>
      <tilted>0</tilted></_>
    <_>
      <rects>
        <_>
          4 12 2 10 -1.</_>
        <_>
          4 12 1 5 2.</_>
        <_>
          5 17 1 5 2.</_></rects>
      <tilted>0</tilted></_>
    <_>
      <rects>
        <_>
          4 13 3 1 -1.</_>
        <_>
          5 13 1 1 3.</_></rects>
      <tilted>0</tilted></_>
    <_>
      <rects>
        <_>
          4 13 3 4 -1.</_>
        <_>
          3 14 3 2 2.</_></rects>
      <tilted>1</tilted></_>
    <_>
      <rects>
        <_>
          4 18 10 6 -1.</_>
        <_>
          4 20 10 2 3.</_></rects>
      <tilted>0</tilted></_>
    <_>
      <rects>
        <_>
          4 21 3 3 -1.</_>
        <_>
          5 21 1 3 3.</_></rects>
      <tilted>0</tilted></_>
    <_>
      <rects>
        <_>
          4 22 18 2 -1.</_>
        <_>
          4 22 9 1 2.</_>
        <_>
          13 23 9 1 2.</_></rects>
      <tilted>0</tilted></_>
    <_>
      <rects>
        <_>
          5 0 12 4 -1.</_>
        <_>
          5 1 12 2 2.</_></rects>
      <tilted>0</tilted></_>
    <_>
      <rects>
        <_>
          5 1 16 4 -1.</_>
        <_>
          5 2 16 2 2.</_></rects>
      <tilted>0</tilted></_>
    <_>
      <rects>
        <_>
          5 2 3 21 -1.</_>
        <_>
          5 9 3 7 3.</_></rects>
      <tilted>0</tilted></_>
    <_>
      <rects>
        <_>
          5 3 8 6 -1.</_>
        <_>
          5 3 4 3 2.</_>
        <_>
          9 6 4 3 2.</_></rects>
      <tilted>0</tilted></_>
    <_>
      <rects>
        <_>
          5 6 6 2 -1.</_>
        <_>
          5 6 3 1 2.</_>
        <_>
          8 7 3 1 2.</_></rects>
      <tilted>0</tilted></_>
    <_>
      <rects>
        <_>
          5 6 6 4 -1.</_>
        <_>
          5 6 3 2 2.</_>
        <_>
          8 8 3 2 2.</_></rects>
      <tilted>0</tilted></_>
    <_>
      <rects>
        <_>
          5 8 1 4 -1.</_>
        <_>
          5 10 1 2 2.</_></rects>
      <tilted>0</tilted></_>
    <_>
      <rects>
        <_>
          5 8 1 6 -1.</_>
        <_>
          5 11 1 3 2.</_></rects>
      <tilted>0</tilted></_>
    <_>
      <rects>
        <_>
          5 11 8 4 -1.</_>
        <_>
          5 11 8 2 2.</_></rects>
      <tilted>1</tilted></_>
    <_>
      <rects>
        <_>
          5 12 3 1 -1.</_>
        <_>
          6 12 1 1 3.</_></rects>
      <tilted>0</tilted></_>
    <_>
      <rects>
        <_>
          5 12 8 1 -1.</_>
        <_>
          9 12 4 1 2.</_></rects>
      <tilted>0</tilted></_>
    <_>
      <rects>
        <_>
          5 13 3 2 -1.</_>
        <_>
          6 13 1 2 3.</_></rects>
      <tilted>0</tilted></_>
    <_>
      <rects>
        <_>
          5 13 7 2 -1.</_>
        <_>
          5 13 7 1 2.</_></rects>
      <tilted>1</tilted></_>
    <_>
      <rects>
        <_>
          6 0 8 4 -1.</_>
        <_>
          8 2 4 4 2.</_></rects>
      <tilted>1</tilted></_>
    <_>
      <rects>
        <_>
          6 1 6 6 -1.</_>
        <_>
          8 3 2 6 3.</_></rects>
      <tilted>1</tilted></_>
    <_>
      <rects>
        <_>
          6 3 4 6 -1.</_>
        <_>
          7 4 2 6 2.</_></rects>
      <tilted>1</tilted></_>
    <_>
      <rects>
        <_>
          6 3 18 20 -1.</_>
        <_>
          6 3 9 10 2.</_>
        <_>
          15 13 9 10 2.</_></rects>
      <tilted>0</tilted></_>
    <_>
      <rects>
        <_>
          6 5 4 2 -1.</_>
        <_>
          7 6 2 2 2.</_></rects>
      <tilted>1</tilted></_>
    <_>
      <rects>
        <_>
          6 9 3 3 -1.</_>
        <_>
          7 10 1 1 9.</_></rects>
      <tilted>0</tilted></_>
    <_>
      <rects>
        <_>
          6 10 14 6 -1.</_>
        <_>
          6 13 14 3 2.</_></rects>
      <tilted>0</tilted></_>
    <_>
      <rects>
        <_>
          6 11 6 3 -1.</_>
        <_>
          8 11 2 3 3.</_></rects>
      <tilted>0</tilted></_>
    <_>
      <rects>
        <_>
          6 11 14 4 -1.</_>
        <_>
          13 11 7 4 2.</_></rects>
      <tilted>0</tilted></_>
    <_>
      <rects>
        <_>
          6 13 4 2 -1.</_>
        <_>
          8 13 2 2 2.</_></rects>
      <tilted>0</tilted></_>
    <_>
      <rects>
        <_>
          6 13 9 2 -1.</_>
        <_>
          9 13 3 2 3.</_></rects>
      <tilted>0</tilted></_>
    <_>
      <rects>
        <_>
          6 14 3 3 -1.</_>
        <_>
          7 15 1 1 9.</_></rects>
      <tilted>0</tilted></_>
    <_>
      <rects>
        <_>
          6 14 2 3 -1.</_>
        <_>
          5 15 2 1 3.</_></rects>
      <tilted>1</tilted></_>
    <_>
      <rects>
        <_>
          6 14 2 8 -1.</_>
        <_>
          6 18 2 4 2.</_></rects>
      <tilted>0</tilted></_>
    <_>
      <rects>
        <_>
          7 0 8 4 -1.</_>
        <_>
          7 1 8 2 2.</_></rects>
      <tilted>0</tilted></_>
    <_>
      <rects>
        <_>
          7 0 10 2 -1.</_>
        <_>
          7 1 10 1 2.</_></rects>
      <tilted>0</tilted></_>
    <_>
      <rects>
        <_>
          7 3 2 4 -1.</_>
        <_>
          7 3 1 2 2.</_>
        <_>
          8 5 1 2 2.</_></rects>
      <tilted>0</tilted></_>
    <_>
      <rects>
        <_>
          7 7 2 1 -1.</_>
        <_>
          7 7 1 1 2.</_></rects>
      <tilted>1</tilted></_>
    <_>
      <rects>
        <_>
          7 8 3 3 -1.</_>
        <_>
          8 9 1 1 9.</_></rects>
      <tilted>0</tilted></_>
    <_>
      <rects>
        <_>
          7 8 4 2 -1.</_>
        <_>
          7 8 2 1 2.</_>
        <_>
          9 9 2 1 2.</_></rects>
      <tilted>0</tilted></_>
    <_>
      <rects>
        <_>
          7 9 6 4 -1.</_>
        <_>
          7 9 3 2 2.</_>
        <_>
          10 11 3 2 2.</_></rects>
      <tilted>0</tilted></_>
    <_>
      <rects>
        <_>
          7 9 8 1 -1.</_>
        <_>
          11 9 4 1 2.</_></rects>
      <tilted>0</tilted></_>
    <_>
      <rects>
        <_>
          7 9 12 6 -1.</_>
        <_>
          13 9 6 6 2.</_></rects>
      <tilted>0</tilted></_>
    <_>
      <rects>
        <_>
          7 11 4 3 -1.</_>
        <_>
          6 12 4 1 3.</_></rects>
      <tilted>1</tilted></_>
    <_>
      <rects>
        <_>
          7 11 10 4 -1.</_>
        <_>
          12 11 5 4 2.</_></rects>
      <tilted>0</tilted></_>
    <_>
      <rects>
        <_>
          7 11 12 6 -1.</_>
        <_>
          13 11 6 6 2.</_></rects>
      <tilted>0</tilted></_>
    <_>
      <rects>
        <_>
          7 12 12 3 -1.</_>
        <_>
          13 12 6 3 2.</_></rects>
      <tilted>0</tilted></_>
    <_>
      <rects>
        <_>
          7 13 12 1 -1.</_>
        <_>
          11 13 4 1 3.</_></rects>
      <tilted>0</tilted></_>
    <_>
      <rects>
        <_>
          7 13 4 4 -1.</_>
        <_>
          7 13 4 2 2.</_></rects>
      <tilted>1</tilted></_>
    <_>
      <rects>
        <_>
          7 14 3 3 -1.</_>
        <_>
          8 15 1 1 9.</_></rects>
      <tilted>0</tilted></_>
    <_>
      <rects>
        <_>
          7 14 3 1 -1.</_>
        <_>
          8 15 1 1 3.</_></rects>
      <tilted>1</tilted></_>
    <_>
      <rects>
        <_>
          7 14 2 4 -1.</_>
        <_>
          6 15 2 2 2.</_></rects>
      <tilted>1</tilted></_>
    <_>
      <rects>
        <_>
          7 14 4 2 -1.</_>
        <_>
          9 14 2 2 2.</_></rects>
      <tilted>0</tilted></_>
    <_>
      <rects>
        <_>
          7 16 4 2 -1.</_>
        <_>
          7 16 2 1 2.</_>
        <_>
          9 17 2 1 2.</_></rects>
      <tilted>0</tilted></_>
    <_>
      <rects>
        <_>
          7 17 11 6 -1.</_>
        <_>
          7 20 11 3 2.</_></rects>
      <tilted>0</tilted></_>
    <_>
      <rects>
        <_>
          7 22 6 2 -1.</_>
        <_>
          7 23 6 1 2.</_></rects>
      <tilted>0</tilted></_>
    <_>
      <rects>
        <_>
          8 4 4 4 -1.</_>
        <_>
          9 5 2 4 2.</_></rects>
      <tilted>1</tilted></_>
    <_>
      <rects>
        <_>
          8 6 3 2 -1.</_>
        <_>
          8 7 3 1 2.</_></rects>
      <tilted>0</tilted></_>
    <_>
      <rects>
        <_>
          8 7 3 3 -1.</_>
        <_>
          9 8 1 1 9.</_></rects>
      <tilted>0</tilted></_>
    <_>
      <rects>
        <_>
          8 7 3 2 -1.</_>
        <_>
          9 8 1 2 3.</_></rects>
      <tilted>1</tilted></_>
    <_>
      <rects>
        <_>
          8 7 10 10 -1.</_>
        <_>
          8 7 5 5 2.</_>
        <_>
          13 12 5 5 2.</_></rects>
      <tilted>0</tilted></_>
    <_>
      <rects>
        <_>
          8 8 6 6 -1.</_>
        <_>
          8 8 3 3 2.</_>
        <_>
          11 11 3 3 2.</_></rects>
      <tilted>0</tilted></_>
    <_>
      <rects>
        <_>
          8 8 8 2 -1.</_>
        <_>
          12 8 4 2 2.</_></rects>
      <tilted>0</tilted></_>
    <_>
      <rects>
        <_>
          8 8 10 4 -1.</_>
        <_>
          13 8 5 4 2.</_></rects>
      <tilted>0</tilted></_>
    <_>
      <rects>
        <_>
          8 9 2 2 -1.</_>
        <_>
          8 9 1 1 2.</_>
        <_>
          9 10 1 1 2.</_></rects>
      <tilted>0</tilted></_>
    <_>
      <rects>
        <_>
          8 10 8 3 -1.</_>
        <_>
          8 10 4 3 2.</_></rects>
      <tilted>1</tilted></_>
    <_>
      <rects>
        <_>
          8 12 12 1 -1.</_>
        <_>
          11 12 6 1 2.</_></rects>
      <tilted>0</tilted></_>
    <_>
      <rects>
        <_>
          8 12 9 3 -1.</_>
        <_>
          11 13 3 1 9.</_></rects>
      <tilted>0</tilted></_>
    <_>
      <rects>
        <_>
          8 12 12 2 -1.</_>
        <_>
          12 12 4 2 3.</_></rects>
      <tilted>0</tilted></_>
    <_>
      <rects>
        <_>
          8 13 2 4 -1.</_>
        <_>
          8 15 2 2 2.</_></rects>
      <tilted>0</tilted></_>
    <_>
      <rects>
        <_>
          8 13 10 2 -1.</_>
        <_>
          8 14 10 1 2.</_></rects>
      <tilted>0</tilted></_>
    <_>
      <rects>
        <_>
          8 16 3 3 -1.</_>
        <_>
          7 17 3 1 3.</_></rects>
      <tilted>1</tilted></_>
    <_>
      <rects>
        <_>
          9 3 4 7 -1.</_>
        <_>
          9 3 2 7 2.</_></rects>
      <tilted>1</tilted></_>
    <_>
      <rects>
        <_>
          9 3 9 4 -1.</_>
        <_>
          9 5 9 2 2.</_></rects>
      <tilted>0</tilted></_>
    <_>
      <rects>
        <_>
          9 4 5 4 -1.</_>
        <_>
          9 5 5 2 2.</_></rects>
      <tilted>0</tilted></_>
    <_>
      <rects>
        <_>
          9 5 7 6 -1.</_>
        <_>
          7 7 7 2 3.</_></rects>
      <tilted>1</tilted></_>
    <_>
      <rects>
        <_>
          9 6 4 15 -1.</_>
        <_>
          10 6 2 15 2.</_></rects>
      <tilted>0</tilted></_>
    <_>
      <rects>
        <_>
          9 6 3 3 -1.</_>
        <_>
          8 7 3 1 3.</_></rects>
      <tilted>1</tilted></_>
    <_>
      <rects>
        <_>
          9 6 5 12 -1.</_>
        <_>
          9 12 5 6 2.</_></rects>
      <tilted>0</tilted></_>
    <_>
      <rects>
        <_>
          9 8 2 2 -1.</_>
        <_>
          9 8 1 1 2.</_>
        <_>
          10 9 1 1 2.</_></rects>
      <tilted>0</tilted></_>
    <_>
      <rects>
        <_>
          9 8 6 1 -1.</_>
        <_>
          11 10 2 1 3.</_></rects>
      <tilted>1</tilted></_>
    <_>
      <rects>
        <_>
          9 8 8 8 -1.</_>
        <_>
          13 8 4 8 2.</_></rects>
      <tilted>0</tilted></_>
    <_>
      <rects>
        <_>
          9 9 4 2 -1.</_>
        <_>
          10 10 2 2 2.</_></rects>
      <tilted>1</tilted></_>
    <_>
      <rects>
        <_>
          9 9 8 12 -1.</_>
        <_>
          11 9 4 12 2.</_></rects>
      <tilted>0</tilted></_>
    <_>
      <rects>
        <_>
          9 10 9 6 -1.</_>
        <_>
          12 10 3 6 3.</_></rects>
      <tilted>0</tilted></_>
    <_>
      <rects>
        <_>
          9 11 9 3 -1.</_>
        <_>
          12 12 3 1 9.</_></rects>
      <tilted>0</tilted></_>
    <_>
      <rects>
        <_>
          9 12 7 2 -1.</_>
        <_>
          9 13 7 1 2.</_></rects>
      <tilted>0</tilted></_>
    <_>
      <rects>
        <_>
          9 13 1 3 -1.</_>
        <_>
          8 14 1 1 3.</_></rects>
      <tilted>1</tilted></_>
    <_>
      <rects>
        <_>
          9 13 4 6 -1.</_>
        <_>
          9 13 4 3 2.</_></rects>
      <tilted>1</tilted></_>
    <_>
      <rects>
        <_>
          9 14 2 4 -1.</_>
        <_>
          8 15 2 2 2.</_></rects>
      <tilted>1</tilted></_>
    <_>
      <rects>
        <_>
          9 16 1 3 -1.</_>
        <_>
          8 17 1 1 3.</_></rects>
      <tilted>1</tilted></_>
    <_>
      <rects>
        <_>
          9 16 2 3 -1.</_>
        <_>
          9 17 2 1 3.</_></rects>
      <tilted>0</tilted></_>
    <_>
      <rects>
        <_>
          10 0 7 4 -1.</_>
        <_>
          10 1 7 2 2.</_></rects>
      <tilted>0</tilted></_>
    <_>
      <rects>
        <_>
          10 0 13 9 -1.</_>
        <_>
          7 3 13 3 3.</_></rects>
      <tilted>1</tilted></_>
    <_>
      <rects>
        <_>
          10 1 3 6 -1.</_>
        <_>
          10 3 3 2 3.</_></rects>
      <tilted>0</tilted></_>
    <_>
      <rects>
        <_>
          10 1 9 12 -1.</_>
        <_>
          10 5 9 4 3.</_></rects>
      <tilted>0</tilted></_>
    <_>
      <rects>
        <_>
          10 3 4 5 -1.</_>
        <_>
          11 4 2 5 2.</_></rects>
      <tilted>1</tilted></_>
    <_>
      <rects>
        <_>
          10 3 5 6 -1.</_>
        <_>
          10 5 5 2 3.</_></rects>
      <tilted>0</tilted></_>
    <_>
      <rects>
        <_>
          10 6 3 3 -1.</_>
        <_>
          9 7 3 1 3.</_></rects>
      <tilted>1</tilted></_>
    <_>
      <rects>
        <_>
          10 6 14 15 -1.</_>
        <_>
          17 6 7 15 2.</_></rects>
      <tilted>0</tilted></_>
    <_>
      <rects>
        <_>
          10 6 10 3 -1.</_>
        <_>
          9 7 10 1 3.</_></rects>
      <tilted>1</tilted></_>
    <_>
      <rects>
        <_>
          10 6 10 4 -1.</_>
        <_>
          10 6 10 2 2.</_></rects>
      <tilted>1</tilted></_>
    <_>
      <rects>
        <_>
          10 7 3 5 -1.</_>
        <_>
          11 8 1 5 3.</_></rects>
      <tilted>1</tilted></_>
    <_>
      <rects>
        <_>
          10 7 3 12 -1.</_>
        <_>
          11 7 1 12 3.</_></rects>
      <tilted>0</tilted></_>
    <_>
      <rects>
        <_>
          10 7 3 6 -1.</_>
        <_>
          10 7 3 3 2.</_></rects>
      <tilted>1</tilted></_>
    <_>
      <rects>
        <_>
          10 7 6 6 -1.</_>
        <_>
          10 9 6 2 3.</_></rects>
      <tilted>0</tilted></_>
    <_>
      <rects>
        <_>
          10 7 9 2 -1.</_>
        <_>
          10 7 9 1 2.</_></rects>
      <tilted>1</tilted></_>
    <_>
      <rects>
        <_>
          10 8 2 2 -1.</_>
        <_>
          10 8 1 1 2.</_>
        <_>
          11 9 1 1 2.</_></rects>
      <tilted>0</tilted></_>
    <_>
      <rects>
        <_>
          10 8 6 3 -1.</_>
        <_>
          10 8 3 3 2.</_></rects>
      <tilted>1</tilted></_>
    <_>
      <rects>
        <_>
          10 8 10 6 -1.</_>
        <_>
          10 8 10 3 2.</_></rects>
      <tilted>1</tilted></_>
    <_>
      <rects>
        <_>
          10 10 6 4 -1.</_>
        <_>
          10 10 3 4 2.</_></rects>
      <tilted>1</tilted></_>
    <_>
      <rects>
        <_>
          10 10 9 3 -1.</_>
        <_>
          10 11 9 1 3.</_></rects>
      <tilted>0</tilted></_>
    <_>
      <rects>
        <_>
          10 11 12 3 -1.</_>
        <_>
          13 11 6 3 2.</_></rects>
      <tilted>0</tilted></_>
    <_>
      <rects>
        <_>
          10 11 5 6 -1.</_>
        <_>
          10 14 5 3 2.</_></rects>
      <tilted>0</tilted></_>
    <_>
      <rects>
        <_>
          10 12 3 2 -1.</_>
        <_>
          11 13 1 2 3.</_></rects>
      <tilted>1</tilted></_>
    <_>
      <rects>
        <_>
          10 12 6 2 -1.</_>
        <_>
          10 12 3 1 2.</_>
        <_>
          13 13 3 1 2.</_></rects>
      <tilted>0</tilted></_>
    <_>
      <rects>
        <_>
          10 12 5 6 -1.</_>
        <_>
          8 14 5 2 3.</_></rects>
      <tilted>1</tilted></_>
    <_>
      <rects>
        <_>
          10 13 1 2 -1.</_>
        <_>
          10 13 1 1 2.</_></rects>
      <tilted>1</tilted></_>
    <_>
      <rects>
        <_>
          10 13 3 3 -1.</_>
        <_>
          11 13 1 3 3.</_></rects>
      <tilted>0</tilted></_>
    <_>
      <rects>
        <_>
          10 13 6 4 -1.</_>
        <_>
          12 13 2 4 3.</_></rects>
      <tilted>0</tilted></_>
    <_>
      <rects>
        <_>
          10 13 4 6 -1.</_>
        <_>
          10 15 4 2 3.</_></rects>
      <tilted>0</tilted></_>
    <_>
      <rects>
        <_>
          10 13 10 2 -1.</_>
        <_>
          10 13 5 1 2.</_>
        <_>
          15 14 5 1 2.</_></rects>
      <tilted>0</tilted></_>
    <_>
      <rects>
        <_>
          10 14 2 4 -1.</_>
        <_>
          9 15 2 2 2.</_></rects>
      <tilted>1</tilted></_>
    <_>
      <rects>
        <_>
          10 16 6 2 -1.</_>
        <_>
          10 17 6 1 2.</_></rects>
      <tilted>0</tilted></_>
    <_>
      <rects>
        <_>
          11 3 11 8 -1.</_>
        <_>
          9 5 11 4 2.</_></rects>
      <tilted>1</tilted></_>
    <_>
      <rects>
        <_>
          11 6 3 6 -1.</_>
        <_>
          12 6 1 6 3.</_></rects>
      <tilted>0</tilted></_>
    <_>
      <rects>
        <_>
          11 6 2 3 -1.</_>
        <_>
          11 7 2 1 3.</_></rects>
      <tilted>0</tilted></_>
    <_>
      <rects>
        <_>
          11 6 4 6 -1.</_>
        <_>
          11 8 4 2 3.</_></rects>
      <tilted>0</tilted></_>
    <_>
      <rects>
        <_>
          11 7 7 3 -1.</_>
        <_>
          10 8 7 1 3.</_></rects>
      <tilted>1</tilted></_>
    <_>
      <rects>
        <_>
          11 7 9 3 -1.</_>
        <_>
          10 8 9 1 3.</_></rects>
      <tilted>1</tilted></_>
    <_>
      <rects>
        <_>
          11 8 6 6 -1.</_>
        <_>
          11 8 3 3 2.</_>
        <_>
          14 11 3 3 2.</_></rects>
      <tilted>0</tilted></_>
    <_>
      <rects>
        <_>
          11 8 6 4 -1.</_>
        <_>
          14 8 3 4 2.</_></rects>
      <tilted>0</tilted></_>
    <_>
      <rects>
        <_>
          11 10 4 8 -1.</_>
        <_>
          12 10 2 8 2.</_></rects>
      <tilted>0</tilted></_>
    <_>
      <rects>
        <_>
          11 10 7 3 -1.</_>
        <_>
          11 11 7 1 3.</_></rects>
      <tilted>0</tilted></_>
    <_>
      <rects>
        <_>
          11 11 3 1 -1.</_>
        <_>
          12 11 1 1 3.</_></rects>
      <tilted>0</tilted></_>
    <_>
      <rects>
        <_>
          11 11 1 2 -1.</_>
        <_>
          11 11 1 1 2.</_></rects>
      <tilted>1</tilted></_>
    <_>
      <rects>
        <_>
          11 11 8 4 -1.</_>
        <_>
          13 11 4 4 2.</_></rects>
      <tilted>0</tilted></_>
    <_>
      <rects>
        <_>
          11 11 9 3 -1.</_>
        <_>
          14 11 3 3 3.</_></rects>
      <tilted>0</tilted></_>
    <_>
      <rects>
        <_>
          11 11 4 4 -1.</_>
        <_>
          11 12 4 2 2.</_></rects>
      <tilted>0</tilted></_>
    <_>
      <rects>
        <_>
          11 12 3 3 -1.</_>
        <_>
          12 13 1 1 9.</_></rects>
      <tilted>0</tilted></_>
    <_>
      <rects>
        <_>
          11 12 3 2 -1.</_>
        <_>
          12 12 1 2 3.</_></rects>
      <tilted>0</tilted></_>
    <_>
      <rects>
        <_>
          11 12 2 4 -1.</_>
        <_>
          11 12 1 2 2.</_>
        <_>
          12 14 1 2 2.</_></rects>
      <tilted>0</tilted></_>
    <_>
      <rects>
        <_>
          11 12 2 3 -1.</_>
        <_>
          11 13 2 1 3.</_></rects>
      <tilted>0</tilted></_>
    <_>
      <rects>
        <_>
          11 12 8 3 -1.</_>
        <_>
          15 12 4 3 2.</_></rects>
      <tilted>0</tilted></_>
    <_>
      <rects>
        <_>
          11 13 1 2 -1.</_>
        <_>
          11 14 1 1 2.</_></rects>
      <tilted>0</tilted></_>
    <_>
      <rects>
        <_>
          11 13 4 1 -1.</_>
        <_>
          12 13 2 1 2.</_></rects>
      <tilted>0</tilted></_>
    <_>
      <rects>
        <_>
          11 13 3 2 -1.</_>
        <_>
          12 13 1 2 3.</_></rects>
      <tilted>0</tilted></_>
    <_>
      <rects>
        <_>
          11 14 1 3 -1.</_>
        <_>
          10 15 1 1 3.</_></rects>
      <tilted>1</tilted></_>
    <_>
      <rects>
        <_>
          11 14 4 4 -1.</_>
        <_>
          12 14 2 4 2.</_></rects>
      <tilted>0</tilted></_>
    <_>
      <rects>
        <_>
          11 14 2 2 -1.</_>
        <_>
          11 14 2 1 2.</_></rects>
      <tilted>1</tilted></_>
    <_>
      <rects>
        <_>
          11 15 2 4 -1.</_>
        <_>
          11 16 2 2 2.</_></rects>
      <tilted>0</tilted></_>
    <_>
      <rects>
        <_>
          12 0 6 6 -1.</_>
        <_>
          12 2 6 2 3.</_></rects>
      <tilted>0</tilted></_>
    <_>
      <rects>
        <_>
          12 1 2 3 -1.</_>
        <_>
          12 2 2 1 3.</_></rects>
      <tilted>0</tilted></_>
    <_>
      <rects>
        <_>
          12 1 12 10 -1.</_>
        <_>
          12 1 6 5 2.</_>
        <_>
          18 6 6 5 2.</_></rects>
      <tilted>0</tilted></_>
    <_>
      <rects>
        <_>
          12 3 12 18 -1.</_>
        <_>
          16 9 4 6 9.</_></rects>
      <tilted>0</tilted></_>
    <_>
      <rects>
        <_>
          12 4 1 4 -1.</_>
        <_>
          12 5 1 2 2.</_></rects>
      <tilted>0</tilted></_>
    <_>
      <rects>
        <_>
          12 4 10 6 -1.</_>
        <_>
          10 6 10 2 3.</_></rects>
      <tilted>1</tilted></_>
    <_>
      <rects>
        <_>
          12 5 3 16 -1.</_>
        <_>
          13 5 1 16 3.</_></rects>
      <tilted>0</tilted></_>
    <_>
      <rects>
        <_>
          12 5 4 8 -1.</_>
        <_>
          12 5 4 4 2.</_></rects>
      <tilted>1</tilted></_>
    <_>
      <rects>
        <_>
          12 5 5 6 -1.</_>
        <_>
          10 7 5 2 3.</_></rects>
      <tilted>1</tilted></_>
    <_>
      <rects>
        <_>
          12 5 9 4 -1.</_>
        <_>
          12 5 9 2 2.</_></rects>
      <tilted>1</tilted></_>
    <_>
      <rects>
        <_>
          12 5 10 6 -1.</_>
        <_>
          10 7 10 2 3.</_></rects>
      <tilted>1</tilted></_>
    <_>
      <rects>
        <_>
          12 6 8 4 -1.</_>
        <_>
          12 6 8 2 2.</_></rects>
      <tilted>1</tilted></_>
    <_>
      <rects>
        <_>
          12 7 3 11 -1.</_>
        <_>
          13 7 1 11 3.</_></rects>
      <tilted>0</tilted></_>
    <_>
      <rects>
        <_>
          12 7 4 8 -1.</_>
        <_>
          12 7 2 4 2.</_>
        <_>
          14 11 2 4 2.</_></rects>
      <tilted>0</tilted></_>
    <_>
      <rects>
        <_>
          12 7 3 3 -1.</_>
        <_>
          12 8 3 1 3.</_></rects>
      <tilted>0</tilted></_>
    <_>
      <rects>
        <_>
          12 7 4 6 -1.</_>
        <_>
          12 9 4 2 3.</_></rects>
      <tilted>0</tilted></_>
    <_>
      <rects>
        <_>
          12 7 4 6 -1.</_>
        <_>
          12 7 4 3 2.</_></rects>
      <tilted>1</tilted></_>
    <_>
      <rects>
        <_>
          12 8 6 11 -1.</_>
        <_>
          14 8 2 11 3.</_></rects>
      <tilted>0</tilted></_>
    <_>
      <rects>
        <_>
          12 8 6 3 -1.</_>
        <_>
          11 9 6 1 3.</_></rects>
      <tilted>1</tilted></_>
    <_>
      <rects>
        <_>
          12 9 3 3 -1.</_>
        <_>
          13 9 1 3 3.</_></rects>
      <tilted>0</tilted></_>
    <_>
      <rects>
        <_>
          12 9 6 3 -1.</_>
        <_>
          15 9 3 3 2.</_></rects>
      <tilted>0</tilted></_>
    <_>
      <rects>
        <_>
          12 9 5 6 -1.</_>
        <_>
          12 12 5 3 2.</_></rects>
      <tilted>0</tilted></_>
    <_>
      <rects>
        <_>
          12 10 1 4 -1.</_>
        <_>
          12 11 1 2 2.</_></rects>
      <tilted>0</tilted></_>
    <_>
      <rects>
        <_>
          12 10 2 5 -1.</_>
        <_>
          13 10 1 5 2.</_></rects>
      <tilted>0</tilted></_>
    <_>
      <rects>
        <_>
          12 10 3 4 -1.</_>
        <_>
          12 11 3 2 2.</_></rects>
      <tilted>0</tilted></_>
    <_>
      <rects>
        <_>
          12 11 1 3 -1.</_>
        <_>
          12 12 1 1 3.</_></rects>
      <tilted>0</tilted></_>
    <_>
      <rects>
        <_>
          12 11 3 3 -1.</_>
        <_>
          13 12 1 1 9.</_></rects>
      <tilted>0</tilted></_>
    <_>
      <rects>
        <_>
          12 11 3 6 -1.</_>
        <_>
          13 12 1 6 3.</_></rects>
      <tilted>1</tilted></_>
    <_>
      <rects>
        <_>
          12 11 3 4 -1.</_>
        <_>
          12 12 3 2 2.</_></rects>
      <tilted>0</tilted></_>
    <_>
      <rects>
        <_>
          12 12 2 2 -1.</_>
        <_>
          12 12 1 1 2.</_>
        <_>
          13 13 1 1 2.</_></rects>
      <tilted>0</tilted></_>
    <_>
      <rects>
        <_>
          12 12 3 3 -1.</_>
        <_>
          13 13 1 1 9.</_></rects>
      <tilted>0</tilted></_>
    <_>
      <rects>
        <_>
          12 12 2 1 -1.</_>
        <_>
          12 12 1 1 2.</_></rects>
      <tilted>1</tilted></_>
    <_>
      <rects>
        <_>
          12 12 1 4 -1.</_>
        <_>
          11 13 1 2 2.</_></rects>
      <tilted>1</tilted></_>
    <_>
      <rects>
        <_>
          12 12 2 2 -1.</_>
        <_>
          12 12 1 2 2.</_></rects>
      <tilted>1</tilted></_>
    <_>
      <rects>
        <_>
          12 12 4 3 -1.</_>
        <_>
          12 13 4 1 3.</_></rects>
      <tilted>0</tilted></_>
    <_>
      <rects>
        <_>
          12 13 3 1 -1.</_>
        <_>
          13 13 1 1 3.</_></rects>
      <tilted>0</tilted></_>
    <_>
      <rects>
        <_>
          12 13 3 2 -1.</_>
        <_>
          13 13 1 2 3.</_></rects>
      <tilted>0</tilted></_>
    <_>
      <rects>
        <_>
          12 13 8 4 -1.</_>
        <_>
          12 13 4 2 2.</_>
        <_>
          16 15 4 2 2.</_></rects>
      <tilted>0</tilted></_>
    <_>
      <rects>
        <_>
          12 14 3 6 -1.</_>
        <_>
          12 16 3 2 3.</_></rects>
      <tilted>0</tilted></_>
    <_>
      <rects>
        <_>
          12 15 4 5 -1.</_>
        <_>
          13 15 2 5 2.</_></rects>
      <tilted>0</tilted></_>
    <_>
      <rects>
        <_>
          12 18 2 3 -1.</_>
        <_>
          12 19 2 1 3.</_></rects>
      <tilted>0</tilted></_>
    <_>
      <rects>
        <_>
          12 21 12 2 -1.</_>
        <_>
          12 21 6 1 2.</_>
        <_>
          18 22 6 1 2.</_></rects>
      <tilted>0</tilted></_>
    <_>
      <rects>
        <_>
          13 1 2 9 -1.</_>
        <_>
          13 1 1 9 2.</_></rects>
      <tilted>1</tilted></_>
    <_>
      <rects>
        <_>
          13 3 4 6 -1.</_>
        <_>
          13 5 4 2 3.</_></rects>
      <tilted>0</tilted></_>
    <_>
      <rects>
        <_>
          13 4 2 3 -1.</_>
        <_>
          13 5 2 1 3.</_></rects>
      <tilted>0</tilted></_>
    <_>
      <rects>
        <_>
          13 5 1 3 -1.</_>
        <_>
          13 6 1 1 3.</_></rects>
      <tilted>0</tilted></_>
    <_>
      <rects>
        <_>
          13 5 2 3 -1.</_>
        <_>
          13 6 2 1 3.</_></rects>
      <tilted>0</tilted></_>
    <_>
      <rects>
        <_>
          13 6 3 3 -1.</_>
        <_>
          14 7 1 1 9.</_></rects>
      <tilted>0</tilted></_>
    <_>
      <rects>
        <_>
          13 7 2 10 -1.</_>
        <_>
          14 7 1 10 2.</_></rects>
      <tilted>0</tilted></_>
    <_>
      <rects>
        <_>
          13 8 7 3 -1.</_>
        <_>
          12 9 7 1 3.</_></rects>
      <tilted>1</tilted></_>
    <_>
      <rects>
        <_>
          13 9 1 6 -1.</_>
        <_>
          13 9 1 3 2.</_></rects>
      <tilted>1</tilted></_>
    <_>
      <rects>
        <_>
          13 9 6 4 -1.</_>
        <_>
          16 9 3 4 2.</_></rects>
      <tilted>0</tilted></_>
    <_>
      <rects>
        <_>
          13 10 1 3 -1.</_>
        <_>
          12 11 1 1 3.</_></rects>
      <tilted>1</tilted></_>
    <_>
      <rects>
        <_>
          13 10 4 6 -1.</_>
        <_>
          14 10 2 6 2.</_></rects>
      <tilted>0</tilted></_>
    <_>
      <rects>
        <_>
          13 10 3 2 -1.</_>
        <_>
          13 10 3 1 2.</_></rects>
      <tilted>1</tilted></_>
    <_>
      <rects>
        <_>
          13 11 2 1 -1.</_>
        <_>
          14 11 1 1 2.</_></rects>
      <tilted>0</tilted></_>
    <_>
      <rects>
        <_>
          13 11 3 3 -1.</_>
        <_>
          14 12 1 1 9.</_></rects>
      <tilted>0</tilted></_>
    <_>
      <rects>
        <_>
          13 11 2 2 -1.</_>
        <_>
          14 11 1 2 2.</_></rects>
      <tilted>0</tilted></_>
    <_>
      <rects>
        <_>
          13 11 2 2 -1.</_>
        <_>
          13 12 2 1 2.</_></rects>
      <tilted>0</tilted></_>
    <_>
      <rects>
        <_>
          13 11 2 4 -1.</_>
        <_>
          13 12 2 2 2.</_></rects>
      <tilted>0</tilted></_>
    <_>
      <rects>
        <_>
          13 11 6 3 -1.</_>
        <_>
          15 12 2 1 9.</_></rects>
      <tilted>0</tilted></_>
    <_>
      <rects>
        <_>
          13 11 6 3 -1.</_>
        <_>
          15 11 2 3 3.</_></rects>
      <tilted>0</tilted></_>
    <_>
      <rects>
        <_>
          13 13 2 2 -1.</_>
        <_>
          13 13 1 1 2.</_>
        <_>
          14 14 1 1 2.</_></rects>
      <tilted>0</tilted></_>
    <_>
      <rects>
        <_>
          13 13 3 6 -1.</_>
        <_>
          13 15 3 2 3.</_></rects>
      <tilted>0</tilted></_>
    <_>
      <rects>
        <_>
          13 14 4 2 -1.</_>
        <_>
          14 15 2 2 2.</_></rects>
      <tilted>1</tilted></_>
    <_>
      <rects>
        <_>
          13 15 4 8 -1.</_>
        <_>
          13 17 4 4 2.</_></rects>
      <tilted>0</tilted></_>
    <_>
      <rects>
        <_>
          13 15 8 6 -1.</_>
        <_>
          13 18 8 3 2.</_></rects>
      <tilted>0</tilted></_>
    <_>
      <rects>
        <_>
          13 17 6 2 -1.</_>
        <_>
          13 17 3 1 2.</_>
        <_>
          16 18 3 1 2.</_></rects>
      <tilted>0</tilted></_>
    <_>
      <rects>
        <_>
          13 18 2 3 -1.</_>
        <_>
          13 19 2 1 3.</_></rects>
      <tilted>0</tilted></_>
    <_>
      <rects>
        <_>
          13 21 10 2 -1.</_>
        <_>
          13 21 5 1 2.</_>
        <_>
          18 22 5 1 2.</_></rects>
      <tilted>0</tilted></_>
    <_>
      <rects>
        <_>
          14 1 10 12 -1.</_>
        <_>
          14 1 10 6 2.</_></rects>
      <tilted>1</tilted></_>
    <_>
      <rects>
        <_>
          14 4 8 10 -1.</_>
        <_>
          14 4 4 10 2.</_></rects>
      <tilted>1</tilted></_>
    <_>
      <rects>
        <_>
          14 5 3 2 -1.</_>
        <_>
          14 6 3 1 2.</_></rects>
      <tilted>0</tilted></_>
    <_>
      <rects>
        <_>
          14 6 3 11 -1.</_>
        <_>
          15 6 1 11 3.</_></rects>
      <tilted>0</tilted></_>
    <_>
      <rects>
        <_>
          14 6 6 6 -1.</_>
        <_>
          14 6 6 3 2.</_></rects>
      <tilted>1</tilted></_>
    <_>
      <rects>
        <_>
          14 7 3 2 -1.</_>
        <_>
          15 7 1 2 3.</_></rects>
      <tilted>0</tilted></_>
    <_>
      <rects>
        <_>
          14 7 2 6 -1.</_>
        <_>
          14 9 2 2 3.</_></rects>
      <tilted>0</tilted></_>
    <_>
      <rects>
        <_>
          14 8 2 6 -1.</_>
        <_>
          14 8 1 3 2.</_>
        <_>
          15 11 1 3 2.</_></rects>
      <tilted>0</tilted></_>
    <_>
      <rects>
        <_>
          14 8 2 6 -1.</_>
        <_>
          14 10 2 2 3.</_></rects>
      <tilted>0</tilted></_>
    <_>
      <rects>
        <_>
          14 8 6 2 -1.</_>
        <_>
          16 10 2 2 3.</_></rects>
      <tilted>1</tilted></_>
    <_>
      <rects>
        <_>
          14 8 2 6 -1.</_>
        <_>
          12 10 2 2 3.</_></rects>
      <tilted>1</tilted></_>
    <_>
      <rects>
        <_>
          14 8 4 10 -1.</_>
        <_>
          14 13 4 5 2.</_></rects>
      <tilted>0</tilted></_>
    <_>
      <rects>
        <_>
          14 9 4 2 -1.</_>
        <_>
          14 10 4 1 2.</_></rects>
      <tilted>0</tilted></_>
    <_>
      <rects>
        <_>
          14 9 10 8 -1.</_>
        <_>
          19 9 5 8 2.</_></rects>
      <tilted>0</tilted></_>
    <_>
      <rects>
        <_>
          14 10 2 3 -1.</_>
        <_>
          13 11 2 1 3.</_></rects>
      <tilted>1</tilted></_>
    <_>
      <rects>
        <_>
          14 10 4 4 -1.</_>
        <_>
          14 11 4 2 2.</_></rects>
      <tilted>0</tilted></_>
    <_>
      <rects>
        <_>
          14 11 2 1 -1.</_>
        <_>
          14 11 1 1 2.</_></rects>
      <tilted>1</tilted></_>
    <_>
      <rects>
        <_>
          14 11 1 2 -1.</_>
        <_>
          14 11 1 1 2.</_></rects>
      <tilted>1</tilted></_>
    <_>
      <rects>
        <_>
          14 11 2 2 -1.</_>
        <_>
          14 11 1 2 2.</_></rects>
      <tilted>1</tilted></_>
    <_>
      <rects>
        <_>
          14 11 1 6 -1.</_>
        <_>
          14 11 1 3 2.</_></rects>
      <tilted>1</tilted></_>
    <_>
      <rects>
        <_>
          14 11 6 3 -1.</_>
        <_>
          17 11 3 3 2.</_></rects>
      <tilted>0</tilted></_>
    <_>
      <rects>
        <_>
          14 12 1 3 -1.</_>
        <_>
          14 13 1 1 3.</_></rects>
      <tilted>0</tilted></_>
    <_>
      <rects>
        <_>
          14 12 2 2 -1.</_>
        <_>
          14 12 1 1 2.</_>
        <_>
          15 13 1 1 2.</_></rects>
      <tilted>0</tilted></_>
    <_>
      <rects>
        <_>
          14 12 2 1 -1.</_>
        <_>
          14 12 1 1 2.</_></rects>
      <tilted>1</tilted></_>
    <_>
      <rects>
        <_>
          14 13 6 3 -1.</_>
        <_>
          16 14 2 1 9.</_></rects>
      <tilted>0</tilted></_>
    <_>
      <rects>
        <_>
          14 13 4 4 -1.</_>
        <_>
          14 13 2 2 2.</_>
        <_>
          16 15 2 2 2.</_></rects>
      <tilted>0</tilted></_>
    <_>
      <rects>
        <_>
          14 14 2 1 -1.</_>
        <_>
          15 14 1 1 2.</_></rects>
      <tilted>0</tilted></_>
    <_>
      <rects>
        <_>
          14 15 8 4 -1.</_>
        <_>
          14 15 4 2 2.</_>
        <_>
          18 17 4 2 2.</_></rects>
      <tilted>0</tilted></_>
    <_>
      <rects>
        <_>
          14 16 2 1 -1.</_>
        <_>
          14 16 1 1 2.</_></rects>
      <tilted>1</tilted></_>
    <_>
      <rects>
        <_>
          14 17 3 6 -1.</_>
        <_>
          14 20 3 3 2.</_></rects>
      <tilted>0</tilted></_>
    <_>
      <rects>
        <_>
          14 20 1 4 -1.</_>
        <_>
          14 21 1 2 2.</_></rects>
      <tilted>0</tilted></_>
    <_>
      <rects>
        <_>
          14 21 10 2 -1.</_>
        <_>
          14 21 5 1 2.</_>
        <_>
          19 22 5 1 2.</_></rects>
      <tilted>0</tilted></_>
    <_>
      <rects>
        <_>
          14 21 6 3 -1.</_>
        <_>
          14 22 6 1 3.</_></rects>
      <tilted>0</tilted></_>
    <_>
      <rects>
        <_>
          15 4 9 18 -1.</_>
        <_>
          18 10 3 6 9.</_></rects>
      <tilted>0</tilted></_>
    <_>
      <rects>
        <_>
          15 5 4 2 -1.</_>
        <_>
          15 6 4 1 2.</_></rects>
      <tilted>0</tilted></_>
    <_>
      <rects>
        <_>
          15 6 2 4 -1.</_>
        <_>
          15 6 1 2 2.</_>
        <_>
          16 8 1 2 2.</_></rects>
      <tilted>0</tilted></_>
    <_>
      <rects>
        <_>
          15 6 4 8 -1.</_>
        <_>
          15 6 2 4 2.</_>
        <_>
          17 10 2 4 2.</_></rects>
      <tilted>0</tilted></_>
    <_>
      <rects>
        <_>
          15 6 2 10 -1.</_>
        <_>
          15 6 2 5 2.</_></rects>
      <tilted>1</tilted></_>
    <_>
      <rects>
        <_>
          15 6 3 8 -1.</_>
        <_>
          15 6 3 4 2.</_></rects>
      <tilted>1</tilted></_>
    <_>
      <rects>
        <_>
          15 7 3 3 -1.</_>
        <_>
          16 8 1 1 9.</_></rects>
      <tilted>0</tilted></_>
    <_>
      <rects>
        <_>
          15 7 3 9 -1.</_>
        <_>
          16 8 1 9 3.</_></rects>
      <tilted>1</tilted></_>
    <_>
      <rects>
        <_>
          15 8 2 5 -1.</_>
        <_>
          16 8 1 5 2.</_></rects>
      <tilted>0</tilted></_>
    <_>
      <rects>
        <_>
          15 8 3 9 -1.</_>
        <_>
          16 9 1 9 3.</_></rects>
      <tilted>1</tilted></_>
    <_>
      <rects>
        <_>
          15 8 4 2 -1.</_>
        <_>
          15 8 2 1 2.</_>
        <_>
          17 9 2 1 2.</_></rects>
      <tilted>0</tilted></_>
    <_>
      <rects>
        <_>
          15 8 2 4 -1.</_>
        <_>
          15 10 2 2 2.</_></rects>
      <tilted>0</tilted></_>
    <_>
      <rects>
        <_>
          15 8 2 6 -1.</_>
        <_>
          15 11 2 3 2.</_></rects>
      <tilted>0</tilted></_>
    <_>
      <rects>
        <_>
          15 9 2 4 -1.</_>
        <_>
          15 9 1 2 2.</_>
        <_>
          16 11 1 2 2.</_></rects>
      <tilted>0</tilted></_>
    <_>
      <rects>
        <_>
          15 10 1 3 -1.</_>
        <_>
          14 11 1 1 3.</_></rects>
      <tilted>1</tilted></_>
    <_>
      <rects>
        <_>
          15 10 2 5 -1.</_>
        <_>
          15 10 1 5 2.</_></rects>
      <tilted>1</tilted></_>
    <_>
      <rects>
        <_>
          15 11 1 3 -1.</_>
        <_>
          15 12 1 1 3.</_></rects>
      <tilted>0</tilted></_>
    <_>
      <rects>
        <_>
          15 11 4 3 -1.</_>
        <_>
          16 11 2 3 2.</_></rects>
      <tilted>0</tilted></_>
    <_>
      <rects>
        <_>
          15 11 2 3 -1.</_>
        <_>
          14 12 2 1 3.</_></rects>
      <tilted>1</tilted></_>
    <_>
      <rects>
        <_>
          15 12 2 1 -1.</_>
        <_>
          16 12 1 1 2.</_></rects>
      <tilted>0</tilted></_>
    <_>
      <rects>
        <_>
          15 12 4 1 -1.</_>
        <_>
          15 12 2 1 2.</_></rects>
      <tilted>1</tilted></_>
    <_>
      <rects>
        <_>
          15 14 1 4 -1.</_>
        <_>
          15 16 1 2 2.</_></rects>
      <tilted>0</tilted></_>
    <_>
      <rects>
        <_>
          15 15 4 2 -1.</_>
        <_>
          15 15 2 1 2.</_>
        <_>
          17 16 2 1 2.</_></rects>
      <tilted>0</tilted></_>
    <_>
      <rects>
        <_>
          16 1 6 16 -1.</_>
        <_>
          16 1 6 8 2.</_></rects>
      <tilted>1</tilted></_>
    <_>
      <rects>
        <_>
          16 2 7 4 -1.</_>
        <_>
          16 2 7 2 2.</_></rects>
      <tilted>1</tilted></_>
    <_>
      <rects>
        <_>
          16 4 7 18 -1.</_>
        <_>
          16 10 7 6 3.</_></rects>
      <tilted>0</tilted></_>
    <_>
      <rects>
        <_>
          16 5 1 2 -1.</_>
        <_>
          16 6 1 1 2.</_></rects>
      <tilted>0</tilted></_>
    <_>
      <rects>
        <_>
          16 5 6 11 -1.</_>
        <_>
          18 7 2 11 3.</_></rects>
      <tilted>1</tilted></_>
    <_>
      <rects>
        <_>
          16 5 3 3 -1.</_>
        <_>
          15 6 3 1 3.</_></rects>
      <tilted>1</tilted></_>
    <_>
      <rects>
        <_>
          16 6 3 8 -1.</_>
        <_>
          17 7 1 8 3.</_></rects>
      <tilted>1</tilted></_>
    <_>
      <rects>
        <_>
          16 7 1 8 -1.</_>
        <_>
          16 7 1 4 2.</_></rects>
      <tilted>1</tilted></_>
    <_>
      <rects>
        <_>
          16 7 3 8 -1.</_>
        <_>
          17 8 1 8 3.</_></rects>
      <tilted>1</tilted></_>
    <_>
      <rects>
        <_>
          16 8 1 3 -1.</_>
        <_>
          15 9 1 1 3.</_></rects>
      <tilted>1</tilted></_>
    <_>
      <rects>
        <_>
          16 8 1 4 -1.</_>
        <_>
          15 9 1 2 2.</_></rects>
      <tilted>1</tilted></_>
    <_>
      <rects>
        <_>
          16 8 3 4 -1.</_>
        <_>
          17 9 1 4 3.</_></rects>
      <tilted>1</tilted></_>
    <_>
      <rects>
        <_>
          16 9 2 5 -1.</_>
        <_>
          16 9 1 5 2.</_></rects>
      <tilted>1</tilted></_>
    <_>
      <rects>
        <_>
          16 11 1 3 -1.</_>
        <_>
          15 12 1 1 3.</_></rects>
      <tilted>1</tilted></_>
    <_>
      <rects>
        <_>
          16 11 4 1 -1.</_>
        <_>
          16 11 2 1 2.</_></rects>
      <tilted>1</tilted></_>
    <_>
      <rects>
        <_>
          16 12 2 2 -1.</_>
        <_>
          16 12 2 1 2.</_></rects>
      <tilted>1</tilted></_>
    <_>
      <rects>
        <_>
          16 12 4 2 -1.</_>
        <_>
          18 12 2 2 2.</_></rects>
      <tilted>0</tilted></_>
    <_>
      <rects>
        <_>
          16 13 6 3 -1.</_>
        <_>
          16 13 3 3 2.</_></rects>
      <tilted>1</tilted></_>
    <_>
      <rects>
        <_>
          16 14 2 1 -1.</_>
        <_>
          16 14 1 1 2.</_></rects>
      <tilted>1</tilted></_>
    <_>
      <rects>
        <_>
          17 2 6 15 -1.</_>
        <_>
          17 2 3 15 2.</_></rects>
      <tilted>1</tilted></_>
    <_>
      <rects>
        <_>
          17 4 6 3 -1.</_>
        <_>
          19 6 2 3 3.</_></rects>
      <tilted>1</tilted></_>
    <_>
      <rects>
        <_>
          17 4 4 2 -1.</_>
        <_>
          17 4 4 1 2.</_></rects>
      <tilted>1</tilted></_>
    <_>
      <rects>
        <_>
          17 6 1 2 -1.</_>
        <_>
          17 7 1 1 2.</_></rects>
      <tilted>0</tilted></_>
    <_>
      <rects>
        <_>
          17 6 3 9 -1.</_>
        <_>
          18 7 1 9 3.</_></rects>
      <tilted>1</tilted></_>
    <_>
      <rects>
        <_>
          17 6 3 10 -1.</_>
        <_>
          18 7 1 10 3.</_></rects>
      <tilted>1</tilted></_>
    <_>
      <rects>
        <_>
          17 7 1 2 -1.</_>
        <_>
          17 8 1 1 2.</_></rects>
      <tilted>0</tilted></_>
    <_>
      <rects>
        <_>
          17 7 6 6 -1.</_>
        <_>
          17 7 3 6 2.</_></rects>
      <tilted>1</tilted></_>
    <_>
      <rects>
        <_>
          17 8 1 4 -1.</_>
        <_>
          17 8 1 2 2.</_></rects>
      <tilted>1</tilted></_>
    <_>
      <rects>
        <_>
          17 8 3 5 -1.</_>
        <_>
          18 9 1 5 3.</_></rects>
      <tilted>1</tilted></_>
    <_>
      <rects>
        <_>
          17 10 3 3 -1.</_>
        <_>
          18 11 1 1 9.</_></rects>
      <tilted>0</tilted></_>
    <_>
      <rects>
        <_>
          17 10 4 2 -1.</_>
        <_>
          17 10 2 2 2.</_></rects>
      <tilted>1</tilted></_>
    <_>
      <rects>
        <_>
          17 13 6 2 -1.</_>
        <_>
          17 13 3 2 2.</_></rects>
      <tilted>1</tilted></_>
    <_>
      <rects>
        <_>
          17 14 4 2 -1.</_>
        <_>
          17 14 2 1 2.</_>
        <_>
          19 15 2 1 2.</_></rects>
      <tilted>0</tilted></_>
    <_>
      <rects>
        <_>
          18 2 2 22 -1.</_>
        <_>
          18 13 2 11 2.</_></rects>
      <tilted>0</tilted></_>
    <_>
      <rects>
        <_>
          18 4 2 4 -1.</_>
        <_>
          17 5 2 2 2.</_></rects>
      <tilted>1</tilted></_>
    <_>
      <rects>
        <_>
          18 4 2 16 -1.</_>
        <_>
          18 8 2 8 2.</_></rects>
      <tilted>0</tilted></_>
    <_>
      <rects>
        <_>
          18 6 2 2 -1.</_>
        <_>
          18 6 2 1 2.</_></rects>
      <tilted>1</tilted></_>
    <_>
      <rects>
        <_>
          18 6 5 4 -1.</_>
        <_>
          18 7 5 2 2.</_></rects>
      <tilted>0</tilted></_>
    <_>
      <rects>
        <_>
          18 7 4 2 -1.</_>
        <_>
          19 8 2 2 2.</_></rects>
      <tilted>1</tilted></_>
    <_>
      <rects>
        <_>
          18 8 2 7 -1.</_>
        <_>
          18 8 1 7 2.</_></rects>
      <tilted>1</tilted></_>
    <_>
      <rects>
        <_>
          18 9 4 2 -1.</_>
        <_>
          18 9 2 2 2.</_></rects>
      <tilted>1</tilted></_>
    <_>
      <rects>
        <_>
          18 10 3 4 -1.</_>
        <_>
          19 11 1 4 3.</_></rects>
      <tilted>1</tilted></_>
    <_>
      <rects>
        <_>
          18 11 3 2 -1.</_>
        <_>
          19 11 1 2 3.</_></rects>
      <tilted>0</tilted></_>
    <_>
      <rects>
        <_>
          18 12 4 1 -1.</_>
        <_>
          19 12 2 1 2.</_></rects>
      <tilted>0</tilted></_>
    <_>
      <rects>
        <_>
          18 12 3 2 -1.</_>
        <_>
          19 12 1 2 3.</_></rects>
      <tilted>0</tilted></_>
    <_>
      <rects>
        <_>
          18 13 3 1 -1.</_>
        <_>
          19 13 1 1 3.</_></rects>
      <tilted>0</tilted></_>
    <_>
      <rects>
        <_>
          18 13 3 2 -1.</_>
        <_>
          19 13 1 2 3.</_></rects>
      <tilted>0</tilted></_>
    <_>
      <rects>
        <_>
          18 14 2 1 -1.</_>
        <_>
          18 14 1 1 2.</_></rects>
      <tilted>1</tilted></_>
    <_>
      <rects>
        <_>
          18 14 4 3 -1.</_>
        <_>
          19 15 2 3 2.</_></rects>
      <tilted>1</tilted></_>
    <_>
      <rects>
        <_>
          18 15 4 9 -1.</_>
        <_>
          18 18 4 3 3.</_></rects>
      <tilted>0</tilted></_>
    <_>
      <rects>
        <_>
          19 1 4 4 -1.</_>
        <_>
          18 2 4 2 2.</_></rects>
      <tilted>1</tilted></_>
    <_>
      <rects>
        <_>
          19 2 1 8 -1.</_>
        <_>
          19 6 1 4 2.</_></rects>
      <tilted>0</tilted></_>
    <_>
      <rects>
        <_>
          19 3 5 9 -1.</_>
        <_>
          19 6 5 3 3.</_></rects>
      <tilted>0</tilted></_>
    <_>
      <rects>
        <_>
          19 5 4 4 -1.</_>
        <_>
          18 6 4 2 2.</_></rects>
      <tilted>1</tilted></_>
    <_>
      <rects>
        <_>
          19 7 1 3 -1.</_>
        <_>
          18 8 1 1 3.</_></rects>
      <tilted>1</tilted></_>
    <_>
      <rects>
        <_>
          19 9 4 7 -1.</_>
        <_>
          21 9 2 7 2.</_></rects>
      <tilted>0</tilted></_>
    <_>
      <rects>
        <_>
          19 10 2 8 -1.</_>
        <_>
          19 10 2 4 2.</_></rects>
      <tilted>1</tilted></_>
    <_>
      <rects>
        <_>
          19 11 4 6 -1.</_>
        <_>
          21 11 2 6 2.</_></rects>
      <tilted>0</tilted></_>
    <_>
      <rects>
        <_>
          19 12 3 4 -1.</_>
        <_>
          20 13 1 4 3.</_></rects>
      <tilted>1</tilted></_>
    <_>
      <rects>
        <_>
          19 13 4 3 -1.</_>
        <_>
          20 14 2 3 2.</_></rects>
      <tilted>1</tilted></_>
    <_>
      <rects>
        <_>
          19 16 2 4 -1.</_>
        <_>
          19 16 1 4 2.</_></rects>
      <tilted>1</tilted></_>
    <_>
      <rects>
        <_>
          19 17 3 2 -1.</_>
        <_>
          20 18 1 2 3.</_></rects>
      <tilted>1</tilted></_>
    <_>
      <rects>
        <_>
          19 22 2 2 -1.</_>
        <_>
          19 23 2 1 2.</_></rects>
      <tilted>0</tilted></_>
    <_>
      <rects>
        <_>
          20 12 4 2 -1.</_>
        <_>
          22 12 2 2 2.</_></rects>
      <tilted>0</tilted></_>
    <_>
      <rects>
        <_>
          20 13 4 7 -1.</_>
        <_>
          20 13 2 7 2.</_></rects>
      <tilted>1</tilted></_>
    <_>
      <rects>
        <_>
          20 14 4 1 -1.</_>
        <_>
          20 14 2 1 2.</_></rects>
      <tilted>1</tilted></_>
    <_>
      <rects>
        <_>
          20 16 4 4 -1.</_>
        <_>
          21 17 2 4 2.</_></rects>
      <tilted>1</tilted></_>
    <_>
      <rects>
        <_>
          21 9 3 3 -1.</_>
        <_>
          21 10 3 1 3.</_></rects>
      <tilted>0</tilted></_>
    <_>
      <rects>
        <_>
          21 11 1 4 -1.</_>
        <_>
          21 12 1 2 2.</_></rects>
      <tilted>0</tilted></_>
    <_>
      <rects>
        <_>
          21 15 3 3 -1.</_>
        <_>
          22 16 1 3 3.</_></rects>
      <tilted>1</tilted></_>
    <_>
      <rects>
        <_>
          22 12 1 12 -1.</_>
        <_>
          22 16 1 4 3.</_></rects>
      <tilted>0</tilted></_>
    <_>
      <rects>
        <_>
          22 13 2 7 -1.</_>
        <_>
          22 13 1 7 2.</_></rects>
      <tilted>1</tilted></_>
    <_>
      <rects>
        <_>
          23 6 1 8 -1.</_>
        <_>
          23 6 1 4 2.</_></rects>
      <tilted>1</tilted></_></features></cascade>
</opencv_storage>
