<?xml version="1.0"?>
<opencv_storage>
<stage14>
  <maxWeakCount>24</maxWeakCount>
  <stageThreshold>-1.3073409795761108e+00</stageThreshold>
  <weakClassifiers>
    <_>
      <internalNodes>
        0 -1 197904 1.9857769075315446e-04</internalNodes>
      <leafValues>
        -3.0320149660110474e-01 3.4328359365463257e-01</leafValues></_>
    <_>
      <internalNodes>
        0 -1 101944 -8.9960750192403793e-03</internalNodes>
      <leafValues>
        3.6623036861419678e-01 -2.4544662237167358e-01</leafValues></_>
    <_>
      <internalNodes>
        0 -1 111168 3.7768503534607589e-04</internalNodes>
      <leafValues>
        -3.3104059100151062e-01 2.3225717246532440e-01</leafValues></_>
    <_>
      <internalNodes>
        0 -1 139476 2.3257345674210228e-05</internalNodes>
      <leafValues>
        1.1918407678604126e-01 -5.7862287759780884e-01</leafValues></_>
    <_>
      <internalNodes>
        0 -1 157319 -1.0386925935745239e-01</internalNodes>
      <leafValues>
        -6.7560863494873047e-01 1.1582314968109131e-01</leafValues></_>
    <_>
      <internalNodes>
        0 -1 136075 1.8709335476160049e-02</internalNodes>
      <leafValues>
        7.7727317810058594e-02 -8.4677308797836304e-01</leafValues></_>
    <_>
      <internalNodes>
        0 -1 94476 2.4283655511680990e-04</internalNodes>
      <leafValues>
        -2.7881866693496704e-01 2.4592269957065582e-01</leafValues></_>
    <_>
      <internalNodes>
        0 -1 125821 9.7915052901953459e-04</internalNodes>
      <leafValues>
        1.1515071988105774e-01 -5.1662421226501465e-01</leafValues></_>
    <_>
      <internalNodes>
        0 -1 227363 5.7281285990029573e-04</internalNodes>
      <leafValues>
        -1.8161284923553467e-01 3.8231128454208374e-01</leafValues></_>
    <_>
      <internalNodes>
        0 -1 248718 -4.5132283121347427e-03</internalNodes>
      <leafValues>
        5.2070069313049316e-01 -1.6870330274105072e-01</leafValues></_>
    <_>
      <internalNodes>
        0 -1 211232 3.0744202376808971e-05</internalNodes>
      <leafValues>
        1.5707224607467651e-01 -5.2989000082015991e-01</leafValues></_>
    <_>
      <internalNodes>
        0 -1 214061 -6.1218785122036934e-03</internalNodes>
      <leafValues>
        2.7624461054801941e-01 -2.4566623568534851e-01</leafValues></_>
    <_>
      <internalNodes>
        0 -1 179350 1.1792929581133649e-04</internalNodes>
      <leafValues>
        1.2281906604766846e-01 -5.7611835002899170e-01</leafValues></_>
    <_>
      <internalNodes>
        0 -1 136774 1.5005774912424386e-04</internalNodes>
      <leafValues>
        2.2252698242664337e-01 -3.2316270470619202e-01</leafValues></_>
    <_>
      <internalNodes>
        0 -1 34258 -4.8956267535686493e-02</internalNodes>
      <leafValues>
        5.3389489650726318e-01 -1.4867503941059113e-01</leafValues></_>
    <_>
      <internalNodes>
        0 -1 50706 -1.1883065104484558e-02</internalNodes>
      <leafValues>
        3.6848399043083191e-01 -2.0597366988658905e-01</leafValues></_>
    <_>
      <internalNodes>
        0 -1 123160 -3.8010627031326294e-03</internalNodes>
      <leafValues>
        -4.8332712054252625e-01 1.4998464286327362e-01</leafValues></_>
    <_>
      <internalNodes>
        0 -1 229017 -3.1869753729552031e-04</internalNodes>
      <leafValues>
        2.5343689322471619e-01 -2.9808095097541809e-01</leafValues></_>
    <_>
      <internalNodes>
        0 -1 134907 3.1934108119457960e-04</internalNodes>
      <leafValues>
        -2.2563561797142029e-01 3.0210572481155396e-01</leafValues></_>
    <_>
      <internalNodes>
        0 -1 235031 8.9364852756261826e-03</internalNodes>
      <leafValues>
        1.4483429491519928e-01 -4.5196509361267090e-01</leafValues></_>
    <_>
      <internalNodes>
        0 -1 230811 3.9799575461074710e-04</internalNodes>
      <leafValues>
        1.2480758130550385e-01 -4.8213234543800354e-01</leafValues></_>
    <_>
      <internalNodes>
        0 -1 125818 5.7012308388948441e-04</internalNodes>
      <leafValues>
        -2.4487306177616119e-01 2.7606013417243958e-01</leafValues></_>
    <_>
      <internalNodes>
        0 -1 202855 -5.3597654914483428e-04</internalNodes>
      <leafValues>
        3.0981102585792542e-01 -2.2808557748794556e-01</leafValues></_>
    <_>
      <internalNodes>
        0 -1 10467 1.1851111799478531e-01</internalNodes>
      <leafValues>
        1.0425022244453430e-01 -6.3949656486511230e-01</leafValues></_></weakClassifiers></stage14>
</opencv_storage>
