<?xml version="1.0"?>
<opencv_storage>
<stage18>
  <maxWeakCount>22</maxWeakCount>
  <stageThreshold>-1.3871672153472900e+00</stageThreshold>
  <weakClassifiers>
    <_>
      <internalNodes>
        0 -1 212896 3.8508977741003036e-04</internalNodes>
      <leafValues>
        -3.1597846746444702e-01 3.9729118347167969e-01</leafValues></_>
    <_>
      <internalNodes>
        0 -1 211741 1.2186000822111964e-04</internalNodes>
      <leafValues>
        1.9341689348220825e-01 -5.9190791845321655e-01</leafValues></_>
    <_>
      <internalNodes>
        0 -1 190265 -1.8654330051504076e-04</internalNodes>
      <leafValues>
        -5.1926141977310181e-01 2.4311718344688416e-01</leafValues></_>
    <_>
      <internalNodes>
        0 -1 79598 1.4830709551461041e-04</internalNodes>
      <leafValues>
        -3.7990525364875793e-01 3.0977034568786621e-01</leafValues></_>
    <_>
      <internalNodes>
        0 -1 42529 3.5298235714435577e-02</internalNodes>
      <leafValues>
        -2.8516206145286560e-01 3.4205636382102966e-01</leafValues></_>
    <_>
      <internalNodes>
        0 -1 173092 4.1536679491400719e-03</internalNodes>
      <leafValues>
        2.8470638394355774e-01 -4.3787589669227600e-01</leafValues></_>
    <_>
      <internalNodes>
        0 -1 174932 -2.4946392513811588e-03</internalNodes>
      <leafValues>
        -7.9548448324203491e-01 1.2479209899902344e-01</leafValues></_>
    <_>
      <internalNodes>
        0 -1 78851 -1.5449267812073231e-03</internalNodes>
      <leafValues>
        -4.8035955429077148e-01 1.8702268600463867e-01</leafValues></_>
    <_>
      <internalNodes>
        0 -1 212157 1.5275852056220174e-03</internalNodes>
      <leafValues>
        -3.8597512245178223e-01 2.5465583801269531e-01</leafValues></_>
    <_>
      <internalNodes>
        0 -1 208640 9.2681683599948883e-04</internalNodes>
      <leafValues>
        -3.3677756786346436e-01 3.3898749947547913e-01</leafValues></_>
    <_>
      <internalNodes>
        0 -1 167190 -6.1572674894705415e-04</internalNodes>
      <leafValues>
        -5.6001377105712891e-01 1.9295258820056915e-01</leafValues></_>
    <_>
      <internalNodes>
        0 -1 64984 -8.6342021822929382e-03</internalNodes>
      <leafValues>
        4.3904834985733032e-01 -2.3758140206336975e-01</leafValues></_>
    <_>
      <internalNodes>
        0 -1 189440 3.1539332121610641e-04</internalNodes>
      <leafValues>
        1.4422446489334106e-01 -6.8842089176177979e-01</leafValues></_>
    <_>
      <internalNodes>
        0 -1 164439 -6.9680228829383850e-02</internalNodes>
      <leafValues>
        -7.8672105073928833e-01 1.1946980655193329e-01</leafValues></_>
    <_>
      <internalNodes>
        0 -1 193754 -2.8888150118291378e-03</internalNodes>
      <leafValues>
        6.7788696289062500e-01 -1.5373535454273224e-01</leafValues></_>
    <_>
      <internalNodes>
        0 -1 51114 1.4850194752216339e-01</internalNodes>
      <leafValues>
        -1.2017764896154404e-01 7.7551233768463135e-01</leafValues></_>
    <_>
      <internalNodes>
        0 -1 179804 3.2814550650073215e-05</internalNodes>
      <leafValues>
        2.6095974445343018e-01 -4.1805309057235718e-01</leafValues></_>
    <_>
      <internalNodes>
        0 -1 245475 3.7735662772320211e-04</internalNodes>
      <leafValues>
        -1.9186365604400635e-01 5.9208226203918457e-01</leafValues></_>
    <_>
      <internalNodes>
        0 -1 163792 -2.4647370446473360e-04</internalNodes>
      <leafValues>
        5.5803143978118896e-01 -1.4672020077705383e-01</leafValues></_>
    <_>
      <internalNodes>
        0 -1 176662 1.7123471479862928e-04</internalNodes>
      <leafValues>
        1.9764275848865509e-01 -5.4706144332885742e-01</leafValues></_>
    <_>
      <internalNodes>
        0 -1 255831 -1.1199485510587692e-02</internalNodes>
      <leafValues>
        5.2965629100799561e-01 -2.0940142869949341e-01</leafValues></_>
    <_>
      <internalNodes>
        0 -1 136891 5.7474030181765556e-03</internalNodes>
      <leafValues>
        1.9055236876010895e-01 -5.6304913759231567e-01</leafValues></_></weakClassifiers></stage18>
</opencv_storage>
