<?xml version="1.0"?>
<opencv_storage>
<stage11>
  <maxWeakCount>15</maxWeakCount>
  <stageThreshold>-1.4045337438583374e+00</stageThreshold>
  <weakClassifiers>
    <_>
      <internalNodes>
        0 -1 152686 1.0163665283471346e-03</internalNodes>
      <leafValues>
        -4.9461078643798828e-01 3.5450643301010132e-01</leafValues></_>
    <_>
      <internalNodes>
        0 -1 179037 -1.3964266145194415e-05</internalNodes>
      <leafValues>
        -4.7097706794738770e-01 3.3009368181228638e-01</leafValues></_>
    <_>
      <internalNodes>
        0 -1 259448 7.2531877085566521e-03</internalNodes>
      <leafValues>
        -3.3150553703308105e-01 3.9007195830345154e-01</leafValues></_>
    <_>
      <internalNodes>
        0 -1 90844 4.3984604417346418e-05</internalNodes>
      <leafValues>
        -4.7486135363578796e-01 2.8700780868530273e-01</leafValues></_>
    <_>
      <internalNodes>
        0 -1 106816 7.8211327490862459e-05</internalNodes>
      <leafValues>
        1.6199283301830292e-01 -8.0498945713043213e-01</leafValues></_>
    <_>
      <internalNodes>
        0 -1 137424 6.3754632719792426e-05</internalNodes>
      <leafValues>
        1.3789209723472595e-01 -6.5833914279937744e-01</leafValues></_>
    <_>
      <internalNodes>
        0 -1 148263 -5.8138393796980381e-04</internalNodes>
      <leafValues>
        -5.3060418367385864e-01 1.9658046960830688e-01</leafValues></_>
    <_>
      <internalNodes>
        0 -1 155273 -2.6450227946043015e-02</internalNodes>
      <leafValues>
        6.9451040029525757e-01 -2.0739459991455078e-01</leafValues></_>
    <_>
      <internalNodes>
        0 -1 180993 5.7051214389503002e-04</internalNodes>
      <leafValues>
        -2.2348545491695404e-01 4.6641185879707336e-01</leafValues></_>
    <_>
      <internalNodes>
        0 -1 147269 -1.4596208930015564e-01</internalNodes>
      <leafValues>
        -7.8787225484848022e-01 1.6983589529991150e-01</leafValues></_>
    <_>
      <internalNodes>
        0 -1 123108 5.5002430453896523e-03</internalNodes>
      <leafValues>
        1.0057594627141953e-01 -8.3221268653869629e-01</leafValues></_>
    <_>
      <internalNodes>
        0 -1 218048 -4.9565574154257774e-03</internalNodes>
      <leafValues>
        2.4259392917156219e-01 -3.8950490951538086e-01</leafValues></_>
    <_>
      <internalNodes>
        0 -1 92056 -2.1574353741016239e-04</internalNodes>
      <leafValues>
        2.2415111958980560e-01 -4.9022525548934937e-01</leafValues></_>
    <_>
      <internalNodes>
        0 -1 64288 -2.3542488925158978e-03</internalNodes>
      <leafValues>
        -8.3309447765350342e-01 1.1567188054323196e-01</leafValues></_>
    <_>
      <internalNodes>
        0 -1 109992 -2.6423114468343556e-04</internalNodes>
      <leafValues>
        -7.0320671796798706e-01 1.2330552935600281e-01</leafValues></_></weakClassifiers></stage11>
</opencv_storage>
