<?xml version="1.0"?>
<opencv_storage>
<stage6>
  <maxWeakCount>15</maxWeakCount>
  <stageThreshold>-1.5725491046905518e+00</stageThreshold>
  <weakClassifiers>
    <_>
      <internalNodes>
        0 -1 190637 -3.0971551313996315e-04</internalNodes>
      <leafValues>
        4.3691149353981018e-01 -4.9466949701309204e-01</leafValues></_>
    <_>
      <internalNodes>
        0 -1 188965 -1.5747822180856019e-04</internalNodes>
      <leafValues>
        2.9764309525489807e-01 -5.2823370695114136e-01</leafValues></_>
    <_>
      <internalNodes>
        0 -1 149152 -5.4764812812209129e-03</internalNodes>
      <leafValues>
        -7.0106780529022217e-01 1.9864907860755920e-01</leafValues></_>
    <_>
      <internalNodes>
        0 -1 110302 6.0164146125316620e-03</internalNodes>
      <leafValues>
        1.4569926261901855e-01 -9.1033446788787842e-01</leafValues></_>
    <_>
      <internalNodes>
        0 -1 10780 -5.1822457462549210e-03</internalNodes>
      <leafValues>
        3.5820224881172180e-01 -4.0762248635292053e-01</leafValues></_>
    <_>
      <internalNodes>
        0 -1 197233 -8.8333757594227791e-03</internalNodes>
      <leafValues>
        -8.1475049257278442e-01 1.3629661500453949e-01</leafValues></_>
    <_>
      <internalNodes>
        0 -1 199014 4.5474924263544381e-05</internalNodes>
      <leafValues>
        -6.1077779531478882e-01 1.9050480425357819e-01</leafValues></_>
    <_>
      <internalNodes>
        0 -1 175954 -1.4394208556041121e-03</internalNodes>
      <leafValues>
        -8.4609019756317139e-01 1.2505564093589783e-01</leafValues></_>
    <_>
      <internalNodes>
        0 -1 257901 -6.5127358539029956e-04</internalNodes>
      <leafValues>
        3.4317865967750549e-01 -3.7741759419441223e-01</leafValues></_>
    <_>
      <internalNodes>
        0 -1 51212 -2.7161160111427307e-01</internalNodes>
      <leafValues>
        5.4653334617614746e-01 -2.4483847618103027e-01</leafValues></_>
    <_>
      <internalNodes>
        0 -1 255711 -7.1303700096905231e-03</internalNodes>
      <leafValues>
        4.8843672871589661e-01 -2.7134492993354797e-01</leafValues></_>
    <_>
      <internalNodes>
        0 -1 164107 -8.1413881853222847e-03</internalNodes>
      <leafValues>
        -7.6583540439605713e-01 1.1401899904012680e-01</leafValues></_>
    <_>
      <internalNodes>
        0 -1 43287 1.0743187740445137e-03</internalNodes>
      <leafValues>
        -3.9027848839759827e-01 2.5960960984230042e-01</leafValues></_>
    <_>
      <internalNodes>
        0 -1 201704 6.6210259683430195e-03</internalNodes>
      <leafValues>
        1.4385570585727692e-01 -8.6322838068008423e-01</leafValues></_>
    <_>
      <internalNodes>
        0 -1 183252 -1.2516323477029800e-02</internalNodes>
      <leafValues>
        4.2896085977554321e-01 -3.0796888470649719e-01</leafValues></_></weakClassifiers></stage6>
</opencv_storage>
