<?xml version="1.0"?>
<opencv_storage>
<stage10>
  <maxWeakCount>14</maxWeakCount>
  <stageThreshold>-1.4063580036163330e+00</stageThreshold>
  <weakClassifiers>
    <_>
      <internalNodes>
        0 -1 177112 2.0827245898544788e-03</internalNodes>
      <leafValues>
        -4.3126177787780762e-01 4.8827293515205383e-01</leafValues></_>
    <_>
      <internalNodes>
        0 -1 143608 -5.8760948479175568e-02</internalNodes>
      <leafValues>
        4.6311256289482117e-01 -3.1595587730407715e-01</leafValues></_>
    <_>
      <internalNodes>
        0 -1 165962 4.6344306610990316e-05</internalNodes>
      <leafValues>
        -7.6027703285217285e-01 2.1199354529380798e-01</leafValues></_>
    <_>
      <internalNodes>
        0 -1 125604 -1.6652725636959076e-02</internalNodes>
      <leafValues>
        3.5049900412559509e-01 -4.4843062758445740e-01</leafValues></_>
    <_>
      <internalNodes>
        0 -1 153579 1.6758220735937357e-03</internalNodes>
      <leafValues>
        1.0633935779333115e-01 -9.3264293670654297e-01</leafValues></_>
    <_>
      <internalNodes>
        0 -1 179035 -4.1361138573847711e-04</internalNodes>
      <leafValues>
        -6.6060477495193481e-01 1.6643907129764557e-01</leafValues></_>
    <_>
      <internalNodes>
        0 -1 253798 -1.1267454829066992e-03</internalNodes>
      <leafValues>
        2.2759653627872467e-01 -4.6029806137084961e-01</leafValues></_>
    <_>
      <internalNodes>
        0 -1 163016 -3.0682230135425925e-04</internalNodes>
      <leafValues>
        -6.3291168212890625e-01 1.6624471545219421e-01</leafValues></_>
    <_>
      <internalNodes>
        0 -1 187371 -1.0784404585137963e-03</internalNodes>
      <leafValues>
        1.6900855302810669e-01 -6.2644445896148682e-01</leafValues></_>
    <_>
      <internalNodes>
        0 -1 138009 -2.4839770048856735e-05</internalNodes>
      <leafValues>
        -4.9532267451286316e-01 2.0589043200016022e-01</leafValues></_>
    <_>
      <internalNodes>
        0 -1 79403 -1.0899134213104844e-03</internalNodes>
      <leafValues>
        -7.6891189813613892e-01 1.2096457183361053e-01</leafValues></_>
    <_>
      <internalNodes>
        0 -1 79979 -2.4816943332552910e-03</internalNodes>
      <leafValues>
        -9.3019354343414307e-01 1.1256752908229828e-01</leafValues></_>
    <_>
      <internalNodes>
        0 -1 125039 -7.8388918191194534e-03</internalNodes>
      <leafValues>
        4.1605514287948608e-01 -2.6855951547622681e-01</leafValues></_>
    <_>
      <internalNodes>
        0 -1 235639 -1.5180337868514471e-05</internalNodes>
      <leafValues>
        -3.9852592349052429e-01 2.7894610166549683e-01</leafValues></_></weakClassifiers></stage10>
</opencv_storage>
