<?xml version="1.0"?>
<opencv_storage>
<stage8>
  <maxWeakCount>18</maxWeakCount>
  <stageThreshold>-1.5835182666778564e+00</stageThreshold>
  <weakClassifiers>
    <_>
      <internalNodes>
        0 -1 254806 -3.6179292947053909e-03</internalNodes>
      <leafValues>
        4.3412527441978455e-01 -3.7430167198181152e-01</leafValues></_>
    <_>
      <internalNodes>
        0 -1 65981 -2.0879581570625305e-02</internalNodes>
      <leafValues>
        4.6267226338386536e-01 -3.2129549980163574e-01</leafValues></_>
    <_>
      <internalNodes>
        0 -1 187205 -5.6398462038487196e-04</internalNodes>
      <leafValues>
        -7.7061635255813599e-01 1.7802092432975769e-01</leafValues></_>
    <_>
      <internalNodes>
        0 -1 165931 -4.4163106940686703e-04</internalNodes>
      <leafValues>
        3.5768488049507141e-01 -3.9821645617485046e-01</leafValues></_>
    <_>
      <internalNodes>
        0 -1 196125 4.4317096471786499e-02</internalNodes>
      <leafValues>
        1.8565866351127625e-01 -6.2434601783752441e-01</leafValues></_>
    <_>
      <internalNodes>
        0 -1 146695 1.5467114280909300e-05</internalNodes>
      <leafValues>
        -6.4036595821380615e-01 1.8448299169540405e-01</leafValues></_>
    <_>
      <internalNodes>
        0 -1 163309 2.0583756850101054e-05</internalNodes>
      <leafValues>
        1.2210282683372498e-01 -7.1125781536102295e-01</leafValues></_>
    <_>
      <internalNodes>
        0 -1 91422 -4.2926877737045288e-02</internalNodes>
      <leafValues>
        -7.4723821878433228e-01 1.3460884988307953e-01</leafValues></_>
    <_>
      <internalNodes>
        0 -1 124189 1.0850993567146361e-04</internalNodes>
      <leafValues>
        1.8722614645957947e-01 -5.7672524452209473e-01</leafValues></_>
    <_>
      <internalNodes>
        0 -1 135894 1.5376279130578041e-02</internalNodes>
      <leafValues>
        1.2561170756816864e-01 -8.0955284833908081e-01</leafValues></_>
    <_>
      <internalNodes>
        0 -1 177177 5.0637481035664678e-04</internalNodes>
      <leafValues>
        -3.6070045828819275e-01 3.2299777865409851e-01</leafValues></_>
    <_>
      <internalNodes>
        0 -1 167841 -3.0805172864347696e-03</internalNodes>
      <leafValues>
        4.3391162157058716e-01 -2.4376825988292694e-01</leafValues></_>
    <_>
      <internalNodes>
        0 -1 174882 -8.5510598728433251e-04</internalNodes>
      <leafValues>
        -8.1178754568099976e-01 1.2280172854661942e-01</leafValues></_>
    <_>
      <internalNodes>
        0 -1 171987 -1.2191548943519592e-02</internalNodes>
      <leafValues>
        2.5223663449287415e-01 -3.8197645545005798e-01</leafValues></_>
    <_>
      <internalNodes>
        0 -1 200800 5.7164370082318783e-04</internalNodes>
      <leafValues>
        1.2423967570066452e-01 -7.4166297912597656e-01</leafValues></_>
    <_>
      <internalNodes>
        0 -1 29756 1.5911888331174850e-02</internalNodes>
      <leafValues>
        9.7545340657234192e-02 -8.7028390169143677e-01</leafValues></_>
    <_>
      <internalNodes>
        0 -1 159054 -2.0722577348351479e-02</internalNodes>
      <leafValues>
        5.3350001573562622e-01 -2.1757605671882629e-01</leafValues></_>
    <_>
      <internalNodes>
        0 -1 147705 2.2007651627063751e-02</internalNodes>
      <leafValues>
        -2.2104759514331818e-01 5.0012630224227905e-01</leafValues></_></weakClassifiers></stage8>
</opencv_storage>
