<?xml version="1.0"?>
<opencv_storage>
<stage8>
  <maxWeakCount>9</maxWeakCount>
  <stageThreshold>-1.3753829002380371e+00</stageThreshold>
  <weakClassifiers>
    <_>
      <internalNodes>
        0 -1 257333 -6.6426885314285755e-03</internalNodes>
      <leafValues>
        5.0612246990203857e-01 -4.8627451062202454e-01</leafValues></_>
    <_>
      <internalNodes>
        0 -1 166122 1.8818380311131477e-02</internalNodes>
      <leafValues>
        2.6991453766822815e-01 -8.9182442426681519e-01</leafValues></_>
    <_>
      <internalNodes>
        0 -1 199514 2.9159418772906065e-03</internalNodes>
      <leafValues>
        -8.4615284204483032e-01 2.9074242711067200e-01</leafValues></_>
    <_>
      <internalNodes>
        0 -1 127564 -2.8423650190234184e-02</internalNodes>
      <leafValues>
        5.9803140163421631e-01 -4.9692684412002563e-01</leafValues></_>
    <_>
      <internalNodes>
        0 -1 191245 3.7809557397849858e-05</internalNodes>
      <leafValues>
        -8.6841154098510742e-01 2.4645377695560455e-01</leafValues></_>
    <_>
      <internalNodes>
        0 -1 149713 1.5367902815341949e-03</internalNodes>
      <leafValues>
        2.2476772964000702e-01 -8.2061243057250977e-01</leafValues></_>
    <_>
      <internalNodes>
        0 -1 148862 -2.0514675416052341e-03</internalNodes>
      <leafValues>
        -9.0203255414962769e-01 2.1332399547100067e-01</leafValues></_>
    <_>
      <internalNodes>
        0 -1 202690 -5.0052702426910400e-03</internalNodes>
      <leafValues>
        -8.9129620790481567e-01 1.4411376416683197e-01</leafValues></_>
    <_>
      <internalNodes>
        0 -1 255641 1.2576165609061718e-02</internalNodes>
      <leafValues>
        -4.3620941042900085e-01 4.2562139034271240e-01</leafValues></_></weakClassifiers></stage8>
</opencv_storage>
