<?xml version="1.0"?>
<opencv_storage>
<stage9>
  <maxWeakCount>18</maxWeakCount>
  <stageThreshold>-1.5528740882873535e+00</stageThreshold>
  <weakClassifiers>
    <_>
      <internalNodes>
        0 -1 221583 1.9573345780372620e-03</internalNodes>
      <leafValues>
        -4.3794870376586914e-01 4.1658535599708557e-01</leafValues></_>
    <_>
      <internalNodes>
        0 -1 258873 -1.1124684475362301e-02</internalNodes>
      <leafValues>
        5.2485769987106323e-01 -2.2806446254253387e-01</leafValues></_>
    <_>
      <internalNodes>
        0 -1 75257 1.1350866407155991e-03</internalNodes>
      <leafValues>
        -6.2503516674041748e-01 2.0026484131813049e-01</leafValues></_>
    <_>
      <internalNodes>
        0 -1 177320 -3.2119947718456388e-04</internalNodes>
      <leafValues>
        2.3852796852588654e-01 -5.1238375902175903e-01</leafValues></_>
    <_>
      <internalNodes>
        0 -1 149248 2.4607580155134201e-02</internalNodes>
      <leafValues>
        9.6909411251544952e-02 -8.2350033521652222e-01</leafValues></_>
    <_>
      <internalNodes>
        0 -1 89848 3.1585316173732281e-03</internalNodes>
      <leafValues>
        -4.9203330278396606e-01 1.9840297102928162e-01</leafValues></_>
    <_>
      <internalNodes>
        0 -1 185927 6.1007207259535789e-03</internalNodes>
      <leafValues>
        -2.3662450909614563e-01 5.3959655761718750e-01</leafValues></_>
    <_>
      <internalNodes>
        0 -1 199625 2.7748444117605686e-03</internalNodes>
      <leafValues>
        2.3027494549751282e-01 -6.2850129604339600e-01</leafValues></_>
    <_>
      <internalNodes>
        0 -1 226561 3.6695420742034912e-02</internalNodes>
      <leafValues>
        1.6843438148498535e-01 -6.2562882900238037e-01</leafValues></_>
    <_>
      <internalNodes>
        0 -1 179118 1.2649386189877987e-03</internalNodes>
      <leafValues>
        -5.9054785966873169e-01 1.7685963213443756e-01</leafValues></_>
    <_>
      <internalNodes>
        0 -1 243807 -9.8903849720954895e-03</internalNodes>
      <leafValues>
        -8.4613823890686035e-01 1.0440872609615326e-01</leafValues></_>
    <_>
      <internalNodes>
        0 -1 107581 3.0269997660070658e-04</internalNodes>
      <leafValues>
        1.1588593572378159e-01 -6.7377960681915283e-01</leafValues></_>
    <_>
      <internalNodes>
        0 -1 175568 -7.2308592498302460e-03</internalNodes>
      <leafValues>
        -6.7982870340347290e-01 1.3803794980049133e-01</leafValues></_>
    <_>
      <internalNodes>
        0 -1 248464 3.6305133253335953e-03</internalNodes>
      <leafValues>
        1.2150844931602478e-01 -7.3735988140106201e-01</leafValues></_>
    <_>
      <internalNodes>
        0 -1 179346 5.0312455277889967e-04</internalNodes>
      <leafValues>
        -3.0939215421676636e-01 3.4201622009277344e-01</leafValues></_>
    <_>
      <internalNodes>
        0 -1 248464 -4.3268064036965370e-03</internalNodes>
      <leafValues>
        -7.4978923797607422e-01 1.2844009697437286e-01</leafValues></_>
    <_>
      <internalNodes>
        0 -1 110932 -1.4375674538314342e-02</internalNodes>
      <leafValues>
        -6.3476103544235229e-01 1.3274520635604858e-01</leafValues></_>
    <_>
      <internalNodes>
        0 -1 62116 2.1953873801976442e-03</internalNodes>
      <leafValues>
        1.0981699079275131e-01 -7.9488700628280640e-01</leafValues></_></weakClassifiers></stage9>
</opencv_storage>
