<?xml version="1.0"?>
<opencv_storage>
<stage4>
  <maxWeakCount>10</maxWeakCount>
  <stageThreshold>-1.8100156784057617e+00</stageThreshold>
  <weakClassifiers>
    <_>
      <internalNodes>
        0 -1 45001 1.1715283617377281e-02</internalNodes>
      <leafValues>
        -4.9425286054611206e-01 3.8053098320960999e-01</leafValues></_>
    <_>
      <internalNodes>
        0 -1 79374 -1.2645600363612175e-02</internalNodes>
      <leafValues>
        -8.3631265163421631e-01 1.9777044653892517e-01</leafValues></_>
    <_>
      <internalNodes>
        0 -1 110447 4.0656514465808868e-03</internalNodes>
      <leafValues>
        2.2886320948600769e-01 -8.5265374183654785e-01</leafValues></_>
    <_>
      <internalNodes>
        0 -1 166179 -2.3602864239364862e-03</internalNodes>
      <leafValues>
        -7.8416472673416138e-01 1.4950826764106750e-01</leafValues></_>
    <_>
      <internalNodes>
        0 -1 185931 -2.2961162903811783e-04</internalNodes>
      <leafValues>
        2.6992982625961304e-01 -6.1595463752746582e-01</leafValues></_>
    <_>
      <internalNodes>
        0 -1 163491 4.6508666127920151e-03</internalNodes>
      <leafValues>
        1.5714825689792633e-01 -8.6362689733505249e-01</leafValues></_>
    <_>
      <internalNodes>
        0 -1 257917 -1.6665599541738629e-03</internalNodes>
      <leafValues>
        2.2768013179302216e-01 -6.7977178096771240e-01</leafValues></_>
    <_>
      <internalNodes>
        0 -1 179118 1.9597266800701618e-03</internalNodes>
      <leafValues>
        -6.4722639322280884e-01 2.1869809925556183e-01</leafValues></_>
    <_>
      <internalNodes>
        0 -1 221009 1.4045780524611473e-02</internalNodes>
      <leafValues>
        1.9007769227027893e-01 -8.2498657703399658e-01</leafValues></_>
    <_>
      <internalNodes>
        0 -1 98528 6.4033344388008118e-02</internalNodes>
      <leafValues>
        -2.6995673775672913e-01 7.3564982414245605e-01</leafValues></_></weakClassifiers></stage4>
</opencv_storage>
