<?xml version="1.0"?>
<opencv_storage>
<stage3>
  <maxWeakCount>8</maxWeakCount>
  <stageThreshold>-1.2431529760360718e+00</stageThreshold>
  <weakClassifiers>
    <_>
      <internalNodes>
        0 -1 250106 -6.7808125168085098e-03</internalNodes>
      <leafValues>
        4.7959184646606445e-01 -4.6078431606292725e-01</leafValues></_>
    <_>
      <internalNodes>
        0 -1 177320 -3.3663786598481238e-04</internalNodes>
      <leafValues>
        3.3834508061408997e-01 -6.2205529212951660e-01</leafValues></_>
    <_>
      <internalNodes>
        0 -1 124292 8.7586697190999985e-03</internalNodes>
      <leafValues>
        -5.2296864986419678e-01 3.7487950921058655e-01</leafValues></_>
    <_>
      <internalNodes>
        0 -1 120670 4.8331562429666519e-03</internalNodes>
      <leafValues>
        2.8988656401634216e-01 -7.7797150611877441e-01</leafValues></_>
    <_>
      <internalNodes>
        0 -1 176051 -1.3454884290695190e-02</internalNodes>
      <leafValues>
        -9.7635293006896973e-01 1.9255651533603668e-01</leafValues></_>
    <_>
      <internalNodes>
        0 -1 178569 -3.3831829205155373e-03</internalNodes>
      <leafValues>
        -8.8268762826919556e-01 1.5864099562168121e-01</leafValues></_>
    <_>
      <internalNodes>
        0 -1 175831 -7.4983919039368629e-03</internalNodes>
      <leafValues>
        2.3983934521675110e-01 -6.5048176050186157e-01</leafValues></_>
    <_>
      <internalNodes>
        0 -1 159186 -9.7701661288738251e-03</internalNodes>
      <leafValues>
        6.5405249595642090e-01 -2.9726195335388184e-01</leafValues></_></weakClassifiers></stage3>
</opencv_storage>
