<?xml version="1.0"?>
<opencv_storage>
<stage5>
  <maxWeakCount>13</maxWeakCount>
  <stageThreshold>-1.3423558473587036e+00</stageThreshold>
  <weakClassifiers>
    <_>
      <internalNodes>
        0 -1 106307 -5.6048645637929440e-03</internalNodes>
      <leafValues>
        2.8327137231826782e-01 -5.8167940378189087e-01</leafValues></_>
    <_>
      <internalNodes>
        0 -1 218067 2.0934823900461197e-02</internalNodes>
      <leafValues>
        1.9433091580867767e-01 -7.5783085823059082e-01</leafValues></_>
    <_>
      <internalNodes>
        0 -1 218074 -2.3268649354577065e-02</internalNodes>
      <leafValues>
        -7.8556811809539795e-01 2.1448560059070587e-01</leafValues></_>
    <_>
      <internalNodes>
        0 -1 168600 -2.4668848142027855e-02</internalNodes>
      <leafValues>
        4.8533713817596436e-01 -3.4081241488456726e-01</leafValues></_>
    <_>
      <internalNodes>
        0 -1 197377 -2.1900788415223360e-03</internalNodes>
      <leafValues>
        -7.4349278211593628e-01 2.1815602481365204e-01</leafValues></_>
    <_>
      <internalNodes>
        0 -1 103065 9.4907786697149277e-03</internalNodes>
      <leafValues>
        -2.6896542310714722e-01 5.8982586860656738e-01</leafValues></_>
    <_>
      <internalNodes>
        0 -1 237707 8.4689510986208916e-03</internalNodes>
      <leafValues>
        1.9767780601978302e-01 -7.4435007572174072e-01</leafValues></_>
    <_>
      <internalNodes>
        0 -1 190919 1.2806400191038847e-03</internalNodes>
      <leafValues>
        -5.3005594015121460e-01 2.6304727792739868e-01</leafValues></_>
    <_>
      <internalNodes>
        0 -1 178863 7.6278904452919960e-04</internalNodes>
      <leafValues>
        -3.9385747909545898e-01 3.5204339027404785e-01</leafValues></_>
    <_>
      <internalNodes>
        0 -1 252301 2.5850927457213402e-02</internalNodes>
      <leafValues>
        -2.2533731162548065e-01 7.3596751689910889e-01</leafValues></_>
    <_>
      <internalNodes>
        0 -1 199616 -9.1646872460842133e-03</internalNodes>
      <leafValues>
        -7.6515060663223267e-01 2.0563344657421112e-01</leafValues></_>
    <_>
      <internalNodes>
        0 -1 122382 -1.1564438231289387e-02</internalNodes>
      <leafValues>
        -8.1831300258636475e-01 1.5337318181991577e-01</leafValues></_>
    <_>
      <internalNodes>
        0 -1 219150 -1.6689887270331383e-03</internalNodes>
      <leafValues>
        2.0812386274337769e-01 -5.8456218242645264e-01</leafValues></_></weakClassifiers></stage5>
</opencv_storage>
