<?xml version="1.0"?>
<opencv_storage>
<stage6>
  <maxWeakCount>10</maxWeakCount>
  <stageThreshold>-1.6584178209304810e+00</stageThreshold>
  <weakClassifiers>
    <_>
      <internalNodes>
        0 -1 244405 4.6547706006094813e-04</internalNodes>
      <leafValues>
        -6.1636108160018921e-01 3.3849728107452393e-01</leafValues></_>
    <_>
      <internalNodes>
        0 -1 117484 -3.1340897083282471e-02</internalNodes>
      <leafValues>
        -8.9593601226806641e-01 2.1326838433742523e-01</leafValues></_>
    <_>
      <internalNodes>
        0 -1 212645 -1.7033595941029489e-04</internalNodes>
      <leafValues>
        -7.8804028034210205e-01 2.0395436882972717e-01</leafValues></_>
    <_>
      <internalNodes>
        0 -1 190773 -7.0764624979346991e-05</internalNodes>
      <leafValues>
        -7.8614401817321777e-01 2.6691940426826477e-01</leafValues></_>
    <_>
      <internalNodes>
        0 -1 81692 -1.4780137687921524e-02</internalNodes>
      <leafValues>
        4.7565081715583801e-01 -3.9511761069297791e-01</leafValues></_>
    <_>
      <internalNodes>
        0 -1 61236 7.6799804810434580e-04</internalNodes>
      <leafValues>
        -4.5671311020851135e-01 3.9372020959854126e-01</leafValues></_>
    <_>
      <internalNodes>
        0 -1 61157 -2.0764876157045364e-02</internalNodes>
      <leafValues>
        -8.6642003059387207e-01 1.8803867697715759e-01</leafValues></_>
    <_>
      <internalNodes>
        0 -1 109806 1.4021073184267152e-05</internalNodes>
      <leafValues>
        1.6421343386173248e-01 -8.6186963319778442e-01</leafValues></_>
    <_>
      <internalNodes>
        0 -1 189240 3.7765966262668371e-03</internalNodes>
      <leafValues>
        1.5016712248325348e-01 -8.7321031093597412e-01</leafValues></_>
    <_>
      <internalNodes>
        0 -1 144567 -2.2627916187047958e-02</internalNodes>
      <leafValues>
        4.8325151205062866e-01 -3.5070434212684631e-01</leafValues></_></weakClassifiers></stage6>
</opencv_storage>
