<?xml version="1.0"?>
<opencv_storage>
<stage2>
  <maxWeakCount>5</maxWeakCount>
  <stageThreshold>-8.5023277997970581e-01</stageThreshold>
  <weakClassifiers>
    <_>
      <internalNodes>
        0 -1 209579 -6.6304474603384733e-04</internalNodes>
      <leafValues>
        -9.8264640569686890e-01 2.9434698820114136e-01</leafValues></_>
    <_>
      <internalNodes>
        0 -1 176912 -1.6651146579533815e-03</internalNodes>
      <leafValues>
        -9.4995373487472534e-01 2.2973310947418213e-01</leafValues></_>
    <_>
      <internalNodes>
        0 -1 186833 2.8083741199225187e-04</internalNodes>
      <leafValues>
        -8.7310820817947388e-01 3.0719780921936035e-01</leafValues></_>
    <_>
      <internalNodes>
        0 -1 113757 -9.3990769237279892e-03</internalNodes>
      <leafValues>
        5.2967554330825806e-01 -5.2862668037414551e-01</leafValues></_>
    <_>
      <internalNodes>
        0 -1 177845 1.6769856301834807e-05</internalNodes>
      <leafValues>
        2.4611318111419678e-01 -9.9472141265869141e-01</leafValues></_></weakClassifiers></stage2>
</opencv_storage>
