<?xml version="1.0"?>
<opencv_storage>
<stage8>
  <maxWeakCount>15</maxWeakCount>
  <stageThreshold>-1.4525815248489380e+00</stageThreshold>
  <weakClassifiers>
    <_>
      <internalNodes>
        0 -1 163471 -6.6801812499761581e-03</internalNodes>
      <leafValues>
        -6.5748029947280884e-01 2.2386059165000916e-01</leafValues></_>
    <_>
      <internalNodes>
        0 -1 135594 1.8623381038196385e-04</internalNodes>
      <leafValues>
        1.9685073196887970e-01 -7.0343625545501709e-01</leafValues></_>
    <_>
      <internalNodes>
        0 -1 191148 9.4749836716800928e-04</internalNodes>
      <leafValues>
        -3.7667149305343628e-01 3.5818842053413391e-01</leafValues></_>
    <_>
      <internalNodes>
        0 -1 163014 5.9168000007048249e-05</internalNodes>
      <leafValues>
        2.3014184832572937e-01 -5.7893610000610352e-01</leafValues></_>
    <_>
      <internalNodes>
        0 -1 135279 -1.1847468093037605e-02</internalNodes>
      <leafValues>
        -7.4756735563278198e-01 1.5925060212612152e-01</leafValues></_>
    <_>
      <internalNodes>
        0 -1 93706 3.5170572809875011e-03</internalNodes>
      <leafValues>
        -6.1644399166107178e-01 1.9014813005924225e-01</leafValues></_>
    <_>
      <internalNodes>
        0 -1 175595 2.2148292511701584e-02</internalNodes>
      <leafValues>
        1.2485078722238541e-01 -8.1528192758560181e-01</leafValues></_>
    <_>
      <internalNodes>
        0 -1 94159 2.8034068644046783e-02</internalNodes>
      <leafValues>
        1.1330809444189072e-01 -7.9418849945068359e-01</leafValues></_>
    <_>
      <internalNodes>
        0 -1 120198 -7.7510997653007507e-04</internalNodes>
      <leafValues>
        2.7029496431350708e-01 -4.1097703576087952e-01</leafValues></_>
    <_>
      <internalNodes>
        0 -1 187985 3.5246132756583393e-04</internalNodes>
      <leafValues>
        1.0861595720052719e-01 -8.2161349058151245e-01</leafValues></_>
    <_>
      <internalNodes>
        0 -1 206644 -5.6600913405418396e-02</internalNodes>
      <leafValues>
        -6.9563108682632446e-01 1.3999976217746735e-01</leafValues></_>
    <_>
      <internalNodes>
        0 -1 179360 -1.5590911498293281e-03</internalNodes>
      <leafValues>
        5.4789263010025024e-01 -2.4563977122306824e-01</leafValues></_>
    <_>
      <internalNodes>
        0 -1 149140 -2.3909997195005417e-02</internalNodes>
      <leafValues>
        -9.1520613431930542e-01 1.3152451813220978e-01</leafValues></_>
    <_>
      <internalNodes>
        0 -1 219094 1.2204154627397656e-03</internalNodes>
      <leafValues>
        -6.9445300102233887e-01 1.4230562746524811e-01</leafValues></_>
    <_>
      <internalNodes>
        0 -1 257529 4.8918398097157478e-03</internalNodes>
      <leafValues>
        -2.8535577654838562e-01 4.2523884773254395e-01</leafValues></_></weakClassifiers></stage8>
</opencv_storage>
