<?xml version="1.0"?>
<opencv_storage>
<stage9>
  <maxWeakCount>23</maxWeakCount>
  <stageThreshold>-1.5512962341308594e+00</stageThreshold>
  <weakClassifiers>
    <_>
      <internalNodes>
        0 -1 192181 -8.5420522373169661e-04</internalNodes>
      <leafValues>
        2.5495749711990356e-01 -6.1224490404129028e-01</leafValues></_>
    <_>
      <internalNodes>
        0 -1 228427 -1.6930587589740753e-02</internalNodes>
      <leafValues>
        -7.1305543184280396e-01 1.1892482638359070e-01</leafValues></_>
    <_>
      <internalNodes>
        0 -1 230259 -1.6885381774045527e-04</internalNodes>
      <leafValues>
        2.8001138567924500e-01 -3.3378690481185913e-01</leafValues></_>
    <_>
      <internalNodes>
        0 -1 151279 2.1948979701846838e-03</internalNodes>
      <leafValues>
        1.4399494230747223e-01 -6.4927178621292114e-01</leafValues></_>
    <_>
      <internalNodes>
        0 -1 173520 6.0639809817075729e-05</internalNodes>
      <leafValues>
        -4.7102275490760803e-01 2.1230211853981018e-01</leafValues></_>
    <_>
      <internalNodes>
        0 -1 190674 1.6490808920934796e-03</internalNodes>
      <leafValues>
        1.9774557650089264e-01 -5.4594224691390991e-01</leafValues></_>
    <_>
      <internalNodes>
        0 -1 202050 -1.0752130765467882e-04</internalNodes>
      <leafValues>
        -7.6256996393203735e-01 5.6614469736814499e-02</leafValues></_>
    <_>
      <internalNodes>
        0 -1 123548 4.6180182835087180e-04</internalNodes>
      <leafValues>
        -4.5856451988220215e-01 1.6818553209304810e-01</leafValues></_>
    <_>
      <internalNodes>
        0 -1 211467 -3.4910562681034207e-04</internalNodes>
      <leafValues>
        -7.9202640056610107e-01 1.1370203644037247e-01</leafValues></_>
    <_>
      <internalNodes>
        0 -1 20574 -1.1535434052348137e-02</internalNodes>
      <leafValues>
        4.7056543827056885e-01 -1.9959770143032074e-01</leafValues></_>
    <_>
      <internalNodes>
        0 -1 166781 7.2500680107623339e-04</internalNodes>
      <leafValues>
        -3.4463405609130859e-01 3.0769538879394531e-01</leafValues></_>
    <_>
      <internalNodes>
        0 -1 245961 -2.5915107689797878e-03</internalNodes>
      <leafValues>
        2.9984417557716370e-01 -2.8408756852149963e-01</leafValues></_>
    <_>
      <internalNodes>
        0 -1 217606 -4.4312984682619572e-03</internalNodes>
      <leafValues>
        5.1397919654846191e-01 -1.7925752699375153e-01</leafValues></_>
    <_>
      <internalNodes>
        0 -1 159557 -1.6070534475147724e-03</internalNodes>
      <leafValues>
        4.3688282370567322e-01 -1.9090999662876129e-01</leafValues></_>
    <_>
      <internalNodes>
        0 -1 139915 -5.9131002053618431e-03</internalNodes>
      <leafValues>
        4.2731246352195740e-01 -2.0030748844146729e-01</leafValues></_>
    <_>
      <internalNodes>
        0 -1 190046 1.7866023699752986e-04</internalNodes>
      <leafValues>
        9.1228567063808441e-02 -7.4900990724563599e-01</leafValues></_>
    <_>
      <internalNodes>
        0 -1 91975 -2.9036538675427437e-02</internalNodes>
      <leafValues>
        3.8553848862648010e-01 -2.1815693378448486e-01</leafValues></_>
    <_>
      <internalNodes>
        0 -1 137618 -7.4946932727470994e-05</internalNodes>
      <leafValues>
        -7.7515447139739990e-01 1.2068936973810196e-01</leafValues></_>
    <_>
      <internalNodes>
        0 -1 253574 -4.9832323566079140e-03</internalNodes>
      <leafValues>
        3.3151629567146301e-01 -2.4924880266189575e-01</leafValues></_>
    <_>
      <internalNodes>
        0 -1 179362 -1.3246441085357219e-04</internalNodes>
      <leafValues>
        -7.0105493068695068e-01 1.2243772298097610e-01</leafValues></_>
    <_>
      <internalNodes>
        0 -1 103587 -3.6545135080814362e-03</internalNodes>
      <leafValues>
        4.3635803461074829e-01 -1.8227100372314453e-01</leafValues></_>
    <_>
      <internalNodes>
        0 -1 210946 5.5871772929094732e-05</internalNodes>
      <leafValues>
        1.4528414607048035e-01 -5.5778992176055908e-01</leafValues></_>
    <_>
      <internalNodes>
        0 -1 215292 -2.0193825475871563e-03</internalNodes>
      <leafValues>
        3.3666697144508362e-01 -2.2361819446086884e-01</leafValues></_></weakClassifiers></stage9>
</opencv_storage>
