<?xml version="1.0"?>
<opencv_storage>
<stage5>
  <maxWeakCount>14</maxWeakCount>
  <stageThreshold>-1.3698080778121948e+00</stageThreshold>
  <weakClassifiers>
    <_>
      <internalNodes>
        0 -1 138026 2.6335450820624828e-04</internalNodes>
      <leafValues>
        -8.2119202613830566e-01 3.5530087351799011e-01</leafValues></_>
    <_>
      <internalNodes>
        0 -1 185667 1.6264801379293203e-03</internalNodes>
      <leafValues>
        -4.8815563321113586e-01 3.6288070678710938e-01</leafValues></_>
    <_>
      <internalNodes>
        0 -1 178371 -2.8057314921170473e-05</internalNodes>
      <leafValues>
        -7.0054382085800171e-01 2.2177706658840179e-01</leafValues></_>
    <_>
      <internalNodes>
        0 -1 177142 2.7357516810297966e-03</internalNodes>
      <leafValues>
        1.7303548753261566e-01 -6.9082629680633545e-01</leafValues></_>
    <_>
      <internalNodes>
        0 -1 176442 -1.2944593327119946e-03</internalNodes>
      <leafValues>
        -7.8672748804092407e-01 1.5773294866085052e-01</leafValues></_>
    <_>
      <internalNodes>
        0 -1 191717 2.7520049479790032e-04</internalNodes>
      <leafValues>
        -5.3590071201324463e-01 2.7333936095237732e-01</leafValues></_>
    <_>
      <internalNodes>
        0 -1 18864 -3.3870017528533936e-01</internalNodes>
      <leafValues>
        7.8912883996963501e-01 -1.9861474633216858e-01</leafValues></_>
    <_>
      <internalNodes>
        0 -1 128989 -1.6300261020660400e-01</internalNodes>
      <leafValues>
        -7.8959655761718750e-01 1.8050301074981689e-01</leafValues></_>
    <_>
      <internalNodes>
        0 -1 153177 1.6352027887478471e-03</internalNodes>
      <leafValues>
        -3.6530977487564087e-01 3.6029630899429321e-01</leafValues></_>
    <_>
      <internalNodes>
        0 -1 248434 -3.7935271859169006e-02</internalNodes>
      <leafValues>
        -7.5567358732223511e-01 1.7826858162879944e-01</leafValues></_>
    <_>
      <internalNodes>
        0 -1 211453 -1.4842554810456932e-04</internalNodes>
      <leafValues>
        -7.2279334068298340e-01 1.5874983370304108e-01</leafValues></_>
    <_>
      <internalNodes>
        0 -1 211453 2.0604531164281070e-04</internalNodes>
      <leafValues>
        1.3216356933116913e-01 -7.1941703557968140e-01</leafValues></_>
    <_>
      <internalNodes>
        0 -1 247909 -1.6480818158015609e-04</internalNodes>
      <leafValues>
        2.0900774002075195e-01 -5.7125210762023926e-01</leafValues></_>
    <_>
      <internalNodes>
        0 -1 252016 -2.4163674097508192e-03</internalNodes>
      <leafValues>
        5.5510872602462769e-01 -2.4717129766941071e-01</leafValues></_></weakClassifiers></stage5>
</opencv_storage>
