<?xml version="1.0"?>
<opencv_storage>
<stage7>
  <maxWeakCount>17</maxWeakCount>
  <stageThreshold>-1.3168014287948608e+00</stageThreshold>
  <weakClassifiers>
    <_>
      <internalNodes>
        0 -1 200106 -9.7005825955420732e-04</internalNodes>
      <leafValues>
        3.2693845033645630e-01 -5.4606139659881592e-01</leafValues></_>
    <_>
      <internalNodes>
        0 -1 117260 -5.4909577593207359e-03</internalNodes>
      <leafValues>
        5.6270909309387207e-01 -2.0941373705863953e-01</leafValues></_>
    <_>
      <internalNodes>
        0 -1 134020 -9.4157352577894926e-04</internalNodes>
      <leafValues>
        2.2345516085624695e-01 -5.0383651256561279e-01</leafValues></_>
    <_>
      <internalNodes>
        0 -1 201092 -1.1527947935974225e-04</internalNodes>
      <leafValues>
        -7.7416664361953735e-01 1.6703495383262634e-01</leafValues></_>
    <_>
      <internalNodes>
        0 -1 207631 1.0892231948673725e-03</internalNodes>
      <leafValues>
        -3.4145349264144897e-01 3.4486359357833862e-01</leafValues></_>
    <_>
      <internalNodes>
        0 -1 176456 8.4943912224844098e-04</internalNodes>
      <leafValues>
        1.2379720062017441e-01 -7.1717345714569092e-01</leafValues></_>
    <_>
      <internalNodes>
        0 -1 166207 -2.9123239073669538e-05</internalNodes>
      <leafValues>
        -7.7849268913269043e-01 1.2476965785026550e-01</leafValues></_>
    <_>
      <internalNodes>
        0 -1 139648 -1.1519910767674446e-02</internalNodes>
      <leafValues>
        -7.8874725103378296e-01 1.0713467001914978e-01</leafValues></_>
    <_>
      <internalNodes>
        0 -1 188064 -3.2153832726180553e-03</internalNodes>
      <leafValues>
        -8.1929761171340942e-01 1.1808887124061584e-01</leafValues></_>
    <_>
      <internalNodes>
        0 -1 220157 -9.9704670719802380e-04</internalNodes>
      <leafValues>
        -8.4082549810409546e-01 8.6742892861366272e-02</leafValues></_>
    <_>
      <internalNodes>
        0 -1 125901 -6.4135569846257567e-04</internalNodes>
      <leafValues>
        2.7813640236854553e-01 -3.7450504302978516e-01</leafValues></_>
    <_>
      <internalNodes>
        0 -1 49713 2.9913328588008881e-02</internalNodes>
      <leafValues>
        -2.3096905648708344e-01 4.7724682092666626e-01</leafValues></_>
    <_>
      <internalNodes>
        0 -1 116616 -5.8301389217376709e-02</internalNodes>
      <leafValues>
        -5.4653441905975342e-01 1.6502961516380310e-01</leafValues></_>
    <_>
      <internalNodes>
        0 -1 188051 2.9449682915583253e-04</internalNodes>
      <leafValues>
        1.7910672724246979e-01 -4.8620533943176270e-01</leafValues></_>
    <_>
      <internalNodes>
        0 -1 138698 3.1384205794893205e-04</internalNodes>
      <leafValues>
        -5.1549929380416870e-01 1.7446185648441315e-01</leafValues></_>
    <_>
      <internalNodes>
        0 -1 188728 -2.5895773433148861e-04</internalNodes>
      <leafValues>
        -7.6288938522338867e-01 9.8796047270298004e-02</leafValues></_>
    <_>
      <internalNodes>
        0 -1 256942 -2.4004927836358547e-03</internalNodes>
      <leafValues>
        4.2464274168014526e-01 -2.2936834394931793e-01</leafValues></_></weakClassifiers></stage7>
</opencv_storage>
