<?xml version="1.0"?>
<opencv_storage>
<stage16>
  <maxWeakCount>27</maxWeakCount>
  <stageThreshold>-1.2130531072616577e+00</stageThreshold>
  <weakClassifiers>
    <_>
      <internalNodes>
        0 -1 202566 -2.8741674032062292e-04</internalNodes>
      <leafValues>
        2.7239489555358887e-01 -3.2891830801963806e-01</leafValues></_>
    <_>
      <internalNodes>
        0 -1 148823 5.5451539810746908e-04</internalNodes>
      <leafValues>
        -3.3967822790145874e-01 2.3829533159732819e-01</leafValues></_>
    <_>
      <internalNodes>
        0 -1 34545 3.7037757039070129e-01</internalNodes>
      <leafValues>
        3.4651869535446167e-01 -2.4073676764965057e-01</leafValues></_>
    <_>
      <internalNodes>
        0 -1 190634 7.2768679820001125e-04</internalNodes>
      <leafValues>
        -3.7734773755073547e-01 2.2392481565475464e-01</leafValues></_>
    <_>
      <internalNodes>
        0 -1 233919 -2.0334550645202398e-03</internalNodes>
      <leafValues>
        4.8369413614273071e-01 -1.7605456709861755e-01</leafValues></_>
    <_>
      <internalNodes>
        0 -1 109026 -1.7445664852857590e-02</internalNodes>
      <leafValues>
        3.1290879845619202e-01 -2.5396135449409485e-01</leafValues></_>
    <_>
      <internalNodes>
        0 -1 191147 7.3918752605095506e-05</internalNodes>
      <leafValues>
        1.3066658377647400e-01 -6.2127363681793213e-01</leafValues></_>
    <_>
      <internalNodes>
        0 -1 218688 9.6653093351051211e-04</internalNodes>
      <leafValues>
        -3.2874724268913269e-01 2.1675580739974976e-01</leafValues></_>
    <_>
      <internalNodes>
        0 -1 165845 1.0237795067951083e-03</internalNodes>
      <leafValues>
        2.5784555077552795e-01 -3.2182335853576660e-01</leafValues></_>
    <_>
      <internalNodes>
        0 -1 198045 -1.3776733539998531e-03</internalNodes>
      <leafValues>
        7.0118761062622070e-01 -1.4369848370552063e-01</leafValues></_>
    <_>
      <internalNodes>
        0 -1 178340 -4.3200326035730541e-04</internalNodes>
      <leafValues>
        -6.4295101165771484e-01 1.3838686048984528e-01</leafValues></_>
    <_>
      <internalNodes>
        0 -1 242584 -2.1221302449703217e-03</internalNodes>
      <leafValues>
        2.1276283264160156e-01 -2.9534333944320679e-01</leafValues></_>
    <_>
      <internalNodes>
        0 -1 257745 -5.6737639009952545e-02</internalNodes>
      <leafValues>
        -8.9921253919601440e-01 8.0159157514572144e-02</leafValues></_>
    <_>
      <internalNodes>
        0 -1 181232 2.6344042271375656e-03</internalNodes>
      <leafValues>
        -1.1178018897771835e-01 6.9511300325393677e-01</leafValues></_>
    <_>
      <internalNodes>
        0 -1 226760 9.6990470774471760e-04</internalNodes>
      <leafValues>
        -1.6680465638637543e-01 3.3149424195289612e-01</leafValues></_>
    <_>
      <internalNodes>
        0 -1 91886 3.2956616487354040e-03</internalNodes>
      <leafValues>
        1.8145796656608582e-01 -3.5655191540718079e-01</leafValues></_>
    <_>
      <internalNodes>
        0 -1 80706 -9.8146952223032713e-04</internalNodes>
      <leafValues>
        3.4322208166122437e-01 -1.8938501179218292e-01</leafValues></_>
    <_>
      <internalNodes>
        0 -1 257443 -8.6332648061215878e-04</internalNodes>
      <leafValues>
        2.8287941217422485e-01 -2.2889721393585205e-01</leafValues></_>
    <_>
      <internalNodes>
        0 -1 135046 7.6639675535261631e-04</internalNodes>
      <leafValues>
        1.0931283980607986e-01 -6.6573864221572876e-01</leafValues></_>
    <_>
      <internalNodes>
        0 -1 202051 -1.3765107723884284e-04</internalNodes>
      <leafValues>
        -5.6110769510269165e-01 9.5014527440071106e-02</leafValues></_>
    <_>
      <internalNodes>
        0 -1 185038 -8.0822426825761795e-03</internalNodes>
      <leafValues>
        3.8034966588020325e-01 -1.7588843405246735e-01</leafValues></_>
    <_>
      <internalNodes>
        0 -1 173319 1.0045224335044622e-03</internalNodes>
      <leafValues>
        -1.9841417670249939e-01 3.4086385369300842e-01</leafValues></_>
    <_>
      <internalNodes>
        0 -1 183587 -1.7701053991913795e-02</internalNodes>
      <leafValues>
        -6.6175454854965210e-01 9.8102197051048279e-02</leafValues></_>
    <_>
      <internalNodes>
        0 -1 95995 -1.3082921504974365e-02</internalNodes>
      <leafValues>
        -6.0736256837844849e-01 9.6856094896793365e-02</leafValues></_>
    <_>
      <internalNodes>
        0 -1 95017 -8.4066633135080338e-03</internalNodes>
      <leafValues>
        1.9793443381786346e-01 -3.2819518446922302e-01</leafValues></_>
    <_>
      <internalNodes>
        0 -1 136897 -2.8455961495637894e-02</internalNodes>
      <leafValues>
        4.8468792438507080e-01 -1.7406922578811646e-01</leafValues></_>
    <_>
      <internalNodes>
        0 -1 190094 1.2682673987001181e-03</internalNodes>
      <leafValues>
        1.7767597734928131e-01 -4.2390805482864380e-01</leafValues></_></weakClassifiers></stage16>
</opencv_storage>
