<?xml version="1.0"?>
<opencv_storage>
<stage9>
  <maxWeakCount>20</maxWeakCount>
  <stageThreshold>-1.4472914934158325e+00</stageThreshold>
  <weakClassifiers>
    <_>
      <internalNodes>
        0 -1 199964 -6.5775695256888866e-03</internalNodes>
      <leafValues>
        3.8742023706436157e-01 -4.7065338492393494e-01</leafValues></_>
    <_>
      <internalNodes>
        0 -1 190165 1.3266080059111118e-03</internalNodes>
      <leafValues>
        -4.4567823410034180e-01 2.7945768833160400e-01</leafValues></_>
    <_>
      <internalNodes>
        0 -1 255116 -8.1965373829007149e-04</internalNodes>
      <leafValues>
        -6.0464435815811157e-01 1.6558301448822021e-01</leafValues></_>
    <_>
      <internalNodes>
        0 -1 245401 -1.4191798400133848e-03</internalNodes>
      <leafValues>
        2.6030614972114563e-01 -4.0138208866119385e-01</leafValues></_>
    <_>
      <internalNodes>
        0 -1 146450 -3.2400358468294144e-03</internalNodes>
      <leafValues>
        3.9105036854743958e-01 -2.2763878107070923e-01</leafValues></_>
    <_>
      <internalNodes>
        0 -1 229744 7.5465524569153786e-03</internalNodes>
      <leafValues>
        8.0348007380962372e-02 -7.4316388368606567e-01</leafValues></_>
    <_>
      <internalNodes>
        0 -1 78359 -7.4712904170155525e-03</internalNodes>
      <leafValues>
        2.9605647921562195e-01 -2.9140698909759521e-01</leafValues></_>
    <_>
      <internalNodes>
        0 -1 125835 5.3933565504848957e-03</internalNodes>
      <leafValues>
        1.4188084006309509e-01 -7.9918020963668823e-01</leafValues></_>
    <_>
      <internalNodes>
        0 -1 162714 4.3259803205728531e-03</internalNodes>
      <leafValues>
        -2.4560621380805969e-01 3.9636963605880737e-01</leafValues></_>
    <_>
      <internalNodes>
        0 -1 220453 -3.2833740115165710e-03</internalNodes>
      <leafValues>
        -5.8912903070449829e-01 1.4117726683616638e-01</leafValues></_>
    <_>
      <internalNodes>
        0 -1 201097 8.7956981733441353e-03</internalNodes>
      <leafValues>
        -1.1880003660917282e-01 9.5403110980987549e-01</leafValues></_>
    <_>
      <internalNodes>
        0 -1 132737 -7.2247050702571869e-03</internalNodes>
      <leafValues>
        4.6813195943832397e-01 -1.6139148175716400e-01</leafValues></_>
    <_>
      <internalNodes>
        0 -1 93816 -9.4360113143920898e-04</internalNodes>
      <leafValues>
        -6.9301319122314453e-01 1.3060382008552551e-01</leafValues></_>
    <_>
      <internalNodes>
        0 -1 120161 -6.1142509803175926e-03</internalNodes>
      <leafValues>
        4.5083272457122803e-01 -1.8960295617580414e-01</leafValues></_>
    <_>
      <internalNodes>
        0 -1 243946 7.0572518743574619e-03</internalNodes>
      <leafValues>
        1.5539032220840454e-01 -5.3633558750152588e-01</leafValues></_>
    <_>
      <internalNodes>
        0 -1 153357 -1.7551261698827147e-03</internalNodes>
      <leafValues>
        1.7869494855403900e-01 -4.5898035168647766e-01</leafValues></_>
    <_>
      <internalNodes>
        0 -1 63182 -3.9727531373500824e-02</internalNodes>
      <leafValues>
        -7.8812032938003540e-01 1.1156153678894043e-01</leafValues></_>
    <_>
      <internalNodes>
        0 -1 153244 2.9760634060949087e-03</internalNodes>
      <leafValues>
        1.2059292197227478e-01 -6.4202439785003662e-01</leafValues></_>
    <_>
      <internalNodes>
        0 -1 165206 8.1419907510280609e-03</internalNodes>
      <leafValues>
        -1.7000696063041687e-01 5.4626226425170898e-01</leafValues></_>
    <_>
      <internalNodes>
        0 -1 175712 -4.4612272176891565e-05</internalNodes>
      <leafValues>
        -4.4813579320907593e-01 2.0457181334495544e-01</leafValues></_></weakClassifiers></stage9>
</opencv_storage>
