<?xml version="1.0"?>
<opencv_storage>
<stage13>
  <maxWeakCount>19</maxWeakCount>
  <stageThreshold>-1.5197360515594482e+00</stageThreshold>
  <weakClassifiers>
    <_>
      <internalNodes>
        0 -1 165826 -3.1218216754496098e-03</internalNodes>
      <leafValues>
        3.5144928097724915e-01 -4.3303570151329041e-01</leafValues></_>
    <_>
      <internalNodes>
        0 -1 168375 2.4472422897815704e-02</internalNodes>
      <leafValues>
        -2.7382266521453857e-01 4.9932026863098145e-01</leafValues></_>
    <_>
      <internalNodes>
        0 -1 254346 -7.0425085723400116e-03</internalNodes>
      <leafValues>
        4.0942564606666565e-01 -3.0164980888366699e-01</leafValues></_>
    <_>
      <internalNodes>
        0 -1 199298 -1.4614989049732685e-04</internalNodes>
      <leafValues>
        -5.8494502305984497e-01 1.8906763195991516e-01</leafValues></_>
    <_>
      <internalNodes>
        0 -1 223431 1.1752181308111176e-05</internalNodes>
      <leafValues>
        2.2148273885250092e-01 -4.4895383715629578e-01</leafValues></_>
    <_>
      <internalNodes>
        0 -1 148382 -7.2304368950426579e-03</internalNodes>
      <leafValues>
        -8.0968832969665527e-01 1.2156354635953903e-01</leafValues></_>
    <_>
      <internalNodes>
        0 -1 140647 -1.3304027961567044e-03</internalNodes>
      <leafValues>
        4.2149239778518677e-01 -2.3375004529953003e-01</leafValues></_>
    <_>
      <internalNodes>
        0 -1 119312 -4.8763183876872063e-03</internalNodes>
      <leafValues>
        -7.4874794483184814e-01 1.1964618414640427e-01</leafValues></_>
    <_>
      <internalNodes>
        0 -1 158485 -1.6945553943514824e-02</internalNodes>
      <leafValues>
        5.8530759811401367e-01 -1.9503447413444519e-01</leafValues></_>
    <_>
      <internalNodes>
        0 -1 120794 1.0576259344816208e-02</internalNodes>
      <leafValues>
        1.7247340083122253e-01 -7.5569301843643188e-01</leafValues></_>
    <_>
      <internalNodes>
        0 -1 122901 1.3779357541352510e-03</internalNodes>
      <leafValues>
        -5.0582474470138550e-01 1.5660011768341064e-01</leafValues></_>
    <_>
      <internalNodes>
        0 -1 250649 4.8637473955750465e-03</internalNodes>
      <leafValues>
        -2.2186693549156189e-01 4.0557396411895752e-01</leafValues></_>
    <_>
      <internalNodes>
        0 -1 50835 5.4340340197086334e-02</internalNodes>
      <leafValues>
        -1.4821872115135193e-01 6.5973532199859619e-01</leafValues></_>
    <_>
      <internalNodes>
        0 -1 208577 -4.1721551679074764e-03</internalNodes>
      <leafValues>
        -5.9141397476196289e-01 1.6476067900657654e-01</leafValues></_>
    <_>
      <internalNodes>
        0 -1 135614 -8.3366185426712036e-03</internalNodes>
      <leafValues>
        6.8685513734817505e-01 -1.3396731019020081e-01</leafValues></_>
    <_>
      <internalNodes>
        0 -1 235362 9.6856511663645506e-04</internalNodes>
      <leafValues>
        -2.6623007655143738e-01 3.3789193630218506e-01</leafValues></_>
    <_>
      <internalNodes>
        0 -1 158477 4.1314009577035904e-03</internalNodes>
      <leafValues>
        1.3253849744796753e-01 -6.7827498912811279e-01</leafValues></_>
    <_>
      <internalNodes>
        0 -1 191247 -4.5135739492252469e-04</internalNodes>
      <leafValues>
        1.9039231538772583e-01 -4.6525502204895020e-01</leafValues></_>
    <_>
      <internalNodes>
        0 -1 28276 -2.8226636350154877e-02</internalNodes>
      <leafValues>
        -7.2304719686508179e-01 1.2309759110212326e-01</leafValues></_></weakClassifiers></stage13>
</opencv_storage>
