<?xml version="1.0"?>
<opencv_storage>
<stage1>
  <maxWeakCount>9</maxWeakCount>
  <stageThreshold>-1.5089241266250610e+00</stageThreshold>
  <weakClassifiers>
    <_>
      <internalNodes>
        0 -1 177425 -3.1068059615790844e-03</internalNodes>
      <leafValues>
        4.5900252461433411e-01 -6.6462665796279907e-01</leafValues></_>
    <_>
      <internalNodes>
        0 -1 211278 -3.3610444515943527e-03</internalNodes>
      <leafValues>
        3.2033550739288330e-01 -8.2315653562545776e-01</leafValues></_>
    <_>
      <internalNodes>
        0 -1 206801 -7.0297122001647949e-02</internalNodes>
      <leafValues>
        -8.8028764724731445e-01 1.9928346574306488e-01</leafValues></_>
    <_>
      <internalNodes>
        0 -1 227320 3.1200718134641647e-02</internalNodes>
      <leafValues>
        2.0902176201343536e-01 -9.0816998481750488e-01</leafValues></_>
    <_>
      <internalNodes>
        0 -1 151488 6.2517491169273853e-03</internalNodes>
      <leafValues>
        1.8660241365432739e-01 -8.5047811269760132e-01</leafValues></_>
    <_>
      <internalNodes>
        0 -1 177736 1.9640461541712284e-03</internalNodes>
      <leafValues>
        -5.0127029418945312e-01 3.9271220564842224e-01</leafValues></_>
    <_>
      <internalNodes>
        0 -1 141551 -4.0947780013084412e-02</internalNodes>
      <leafValues>
        5.9268057346343994e-01 -3.3748745918273926e-01</leafValues></_>
    <_>
      <internalNodes>
        0 -1 77267 -4.2328208684921265e-02</internalNodes>
      <leafValues>
        -7.1694356203079224e-01 2.4453864991664886e-01</leafValues></_>
    <_>
      <internalNodes>
        0 -1 109731 1.2108369730412960e-02</internalNodes>
      <leafValues>
        2.0137988030910492e-01 -8.6024904251098633e-01</leafValues></_></weakClassifiers></stage1>
</opencv_storage>
