<?xml version="1.0"?>
<opencv_storage>
<stage0>
  <maxWeakCount>5</maxWeakCount>
  <stageThreshold>-9.2414438724517822e-01</stageThreshold>
  <weakClassifiers>
    <_>
      <internalNodes>
        0 -1 62146 5.4620224982500076e-03</internalNodes>
      <leafValues>
        -7.5121951103210449e-01 5.2203387022018433e-01</leafValues></_>
    <_>
      <internalNodes>
        0 -1 165637 1.1456773063400760e-04</internalNodes>
      <leafValues>
        -9.5008516311645508e-01 3.5968849062919617e-01</leafValues></_>
    <_>
      <internalNodes>
        0 -1 210084 -6.0027819126844406e-03</internalNodes>
      <leafValues>
        -9.4999843835830688e-01 2.3881454765796661e-01</leafValues></_>
    <_>
      <internalNodes>
        0 -1 178618 -2.4743953254073858e-03</internalNodes>
      <leafValues>
        -8.6643058061599731e-01 2.3676827549934387e-01</leafValues></_>
    <_>
      <internalNodes>
        0 -1 243104 6.4045866020023823e-03</internalNodes>
      <leafValues>
        3.0157750844955444e-01 -9.4686007499694824e-01</leafValues></_></weakClassifiers></stage0>
</opencv_storage>
