<?xml version="1.0"?>
<opencv_storage>
<stage4>
  <maxWeakCount>11</maxWeakCount>
  <stageThreshold>-1.2975805997848511e+00</stageThreshold>
  <weakClassifiers>
    <_>
      <internalNodes>
        0 -1 179133 1.4265874051488936e-04</internalNodes>
      <leafValues>
        -7.3571425676345825e-01 2.8611111640930176e-01</leafValues></_>
    <_>
      <internalNodes>
        0 -1 1387 -1.1599339544773102e-01</internalNodes>
      <leafValues>
        6.9130373001098633e-01 -2.6841548085212708e-01</leafValues></_>
    <_>
      <internalNodes>
        0 -1 229749 2.3472492466680706e-04</internalNodes>
      <leafValues>
        2.3266735672950745e-01 -8.1547385454177856e-01</leafValues></_>
    <_>
      <internalNodes>
        0 -1 122802 3.0159752350300550e-04</internalNodes>
      <leafValues>
        -6.7119991779327393e-01 2.5326636433601379e-01</leafValues></_>
    <_>
      <internalNodes>
        0 -1 220357 -5.1201746100559831e-04</internalNodes>
      <leafValues>
        -6.6332757472991943e-01 2.6431483030319214e-01</leafValues></_>
    <_>
      <internalNodes>
        0 -1 155523 -3.1915042549371719e-02</internalNodes>
      <leafValues>
        5.7240551710128784e-01 -3.3311820030212402e-01</leafValues></_>
    <_>
      <internalNodes>
        0 -1 78387 -3.3206527587026358e-04</internalNodes>
      <leafValues>
        -6.2448519468307495e-01 2.7806839346885681e-01</leafValues></_>
    <_>
      <internalNodes>
        0 -1 191409 -1.4083404093980789e-03</internalNodes>
      <leafValues>
        -8.0409622192382812e-01 1.6722083091735840e-01</leafValues></_>
    <_>
      <internalNodes>
        0 -1 154413 -1.8175695091485977e-02</internalNodes>
      <leafValues>
        3.7019017338752747e-01 -3.9100745320320129e-01</leafValues></_>
    <_>
      <internalNodes>
        0 -1 137017 -2.8087537735700607e-02</internalNodes>
      <leafValues>
        -8.3033859729766846e-01 1.3607881963253021e-01</leafValues></_>
    <_>
      <internalNodes>
        0 -1 177454 -1.1914201604668051e-04</internalNodes>
      <leafValues>
        1.6488042473793030e-01 -7.1486282348632812e-01</leafValues></_></weakClassifiers></stage4>
</opencv_storage>
