<?xml version="1.0"?>
<opencv_storage>
<stage7>
  <maxWeakCount>17</maxWeakCount>
  <stageThreshold>-1.5873550176620483e+00</stageThreshold>
  <weakClassifiers>
    <_>
      <internalNodes>
        0 -1 200420 4.7727843048051000e-04</internalNodes>
      <leafValues>
        -5.6914895772933960e-01 3.4294870495796204e-01</leafValues></_>
    <_>
      <internalNodes>
        0 -1 80343 -4.1884661186486483e-05</internalNodes>
      <leafValues>
        2.2304080426692963e-01 -6.7698454856872559e-01</leafValues></_>
    <_>
      <internalNodes>
        0 -1 149279 1.7770691774785519e-03</internalNodes>
      <leafValues>
        2.2322142124176025e-01 -6.6747558116912842e-01</leafValues></_>
    <_>
      <internalNodes>
        0 -1 251946 -8.5631698369979858e-02</internalNodes>
      <leafValues>
        6.1163741350173950e-01 -2.5346708297729492e-01</leafValues></_>
    <_>
      <internalNodes>
        0 -1 146704 2.3542776703834534e-02</internalNodes>
      <leafValues>
        -3.6583417654037476e-01 4.2276710271835327e-01</leafValues></_>
    <_>
      <internalNodes>
        0 -1 63468 1.3766309712082148e-03</internalNodes>
      <leafValues>
        2.4228389561176300e-01 -7.5359010696411133e-01</leafValues></_>
    <_>
      <internalNodes>
        0 -1 258784 -4.2782784439623356e-03</internalNodes>
      <leafValues>
        3.3763432502746582e-01 -3.8340529799461365e-01</leafValues></_>
    <_>
      <internalNodes>
        0 -1 125632 4.5684358337894082e-04</internalNodes>
      <leafValues>
        1.5832617878913879e-01 -8.9809328317642212e-01</leafValues></_>
    <_>
      <internalNodes>
        0 -1 109324 -1.3023591600358486e-04</internalNodes>
      <leafValues>
        -6.8070012331008911e-01 1.1007825285196304e-01</leafValues></_>
    <_>
      <internalNodes>
        0 -1 78389 1.8917561974376440e-03</internalNodes>
      <leafValues>
        1.3861830532550812e-01 -7.4465036392211914e-01</leafValues></_>
    <_>
      <internalNodes>
        0 -1 150808 5.2759363315999508e-03</internalNodes>
      <leafValues>
        -1.9997252523899078e-01 6.1646449565887451e-01</leafValues></_>
    <_>
      <internalNodes>
        0 -1 19333 1.6966808587312698e-02</internalNodes>
      <leafValues>
        -1.7549061775207520e-01 6.2200790643692017e-01</leafValues></_>
    <_>
      <internalNodes>
        0 -1 238849 -9.5513649284839630e-04</internalNodes>
      <leafValues>
        2.9268789291381836e-01 -4.5575642585754395e-01</leafValues></_>
    <_>
      <internalNodes>
        0 -1 149981 1.2533706612884998e-02</internalNodes>
      <leafValues>
        1.3318720459938049e-01 -9.2442917823791504e-01</leafValues></_>
    <_>
      <internalNodes>
        0 -1 219548 3.4994259476661682e-04</internalNodes>
      <leafValues>
        1.2093558162450790e-01 -7.1154224872589111e-01</leafValues></_>
    <_>
      <internalNodes>
        0 -1 178975 -3.4089875407516956e-03</internalNodes>
      <leafValues>
        4.2029762268066406e-01 -2.9272636771202087e-01</leafValues></_>
    <_>
      <internalNodes>
        0 -1 200810 2.1870806813240051e-03</internalNodes>
      <leafValues>
        1.7815399169921875e-01 -5.9625357389450073e-01</leafValues></_></weakClassifiers></stage7>
</opencv_storage>
