<?xml version="1.0"?>
<opencv_storage>
<stage5>
  <maxWeakCount>12</maxWeakCount>
  <stageThreshold>-1.6266046762466431e+00</stageThreshold>
  <weakClassifiers>
    <_>
      <internalNodes>
        0 -1 221976 5.0110969459638000e-04</internalNodes>
      <leafValues>
        -5.0731158256530762e-01 4.0594059228897095e-01</leafValues></_>
    <_>
      <internalNodes>
        0 -1 219333 6.5664248540997505e-04</internalNodes>
      <leafValues>
        2.0982673764228821e-01 -8.6896526813507080e-01</leafValues></_>
    <_>
      <internalNodes>
        0 -1 63756 -1.0132775641977787e-02</internalNodes>
      <leafValues>
        -6.9951325654983521e-01 2.4858213961124420e-01</leafValues></_>
    <_>
      <internalNodes>
        0 -1 210084 -2.0107601303607225e-03</internalNodes>
      <leafValues>
        -7.8693765401840210e-01 1.7220750451087952e-01</leafValues></_>
    <_>
      <internalNodes>
        0 -1 138125 -4.1827515815384686e-04</internalNodes>
      <leafValues>
        2.1300314366817474e-01 -6.3957405090332031e-01</leafValues></_>
    <_>
      <internalNodes>
        0 -1 109992 -2.1087125060148537e-04</internalNodes>
      <leafValues>
        -6.6076898574829102e-01 2.2766897082328796e-01</leafValues></_>
    <_>
      <internalNodes>
        0 -1 144557 -9.4882929697632790e-03</internalNodes>
      <leafValues>
        3.2792237401008606e-01 -4.3553376197814941e-01</leafValues></_>
    <_>
      <internalNodes>
        0 -1 140170 1.2178961187601089e-03</internalNodes>
      <leafValues>
        1.4958356320858002e-01 -9.5194894075393677e-01</leafValues></_>
    <_>
      <internalNodes>
        0 -1 245408 3.8111065514385700e-03</internalNodes>
      <leafValues>
        -4.6910554170608521e-01 2.8715342283248901e-01</leafValues></_>
    <_>
      <internalNodes>
        0 -1 162383 -4.1504749096930027e-03</internalNodes>
      <leafValues>
        -8.3964413404464722e-01 1.6025273501873016e-01</leafValues></_>
    <_>
      <internalNodes>
        0 -1 166308 -3.1119274353841320e-05</internalNodes>
      <leafValues>
        -7.7114611864089966e-01 1.1403112113475800e-01</leafValues></_>
    <_>
      <internalNodes>
        0 -1 185451 -5.3385097533464432e-02</internalNodes>
      <leafValues>
        -6.5888053178787231e-01 2.1584469079971313e-01</leafValues></_></weakClassifiers></stage5>
</opencv_storage>
