<?xml version="1.0"?>
<opencv_storage>
<stage5>
  <maxWeakCount>8</maxWeakCount>
  <stageThreshold>-1.0367823839187622e+00</stageThreshold>
  <weakClassifiers>
    <_>
      <internalNodes>
        0 -1 125098 -9.8926629871129990e-03</internalNodes>
      <leafValues>
        4.0147179365158081e-01 -6.3191765546798706e-01</leafValues></_>
    <_>
      <internalNodes>
        0 -1 176541 1.0821719479281455e-04</internalNodes>
      <leafValues>
        -8.1659209728240967e-01 2.5838607549667358e-01</leafValues></_>
    <_>
      <internalNodes>
        0 -1 211111 -2.2820351296104491e-04</internalNodes>
      <leafValues>
        -7.2231441736221313e-01 3.1552001833915710e-01</leafValues></_>
    <_>
      <internalNodes>
        0 -1 203675 -2.4939802824519575e-04</internalNodes>
      <leafValues>
        -8.4059810638427734e-01 1.7096534371376038e-01</leafValues></_>
    <_>
      <internalNodes>
        0 -1 259652 -9.8383100703358650e-04</internalNodes>
      <leafValues>
        3.0121424794197083e-01 -6.3128274679183960e-01</leafValues></_>
    <_>
      <internalNodes>
        0 -1 8995 -2.0863667596131563e-03</internalNodes>
      <leafValues>
        2.9273700714111328e-01 -6.0178279876708984e-01</leafValues></_>
    <_>
      <internalNodes>
        0 -1 150566 9.3299237778410316e-04</internalNodes>
      <leafValues>
        1.9159045815467834e-01 -9.5035099983215332e-01</leafValues></_>
    <_>
      <internalNodes>
        0 -1 243797 9.1936999524477869e-05</internalNodes>
      <leafValues>
        1.7753468453884125e-01 -8.5710668563842773e-01</leafValues></_></weakClassifiers></stage5>
</opencv_storage>
