<?xml version="1.0"?>
<opencv_storage>
<stage4>
  <maxWeakCount>9</maxWeakCount>
  <stageThreshold>-1.3596493005752563e+00</stageThreshold>
  <weakClassifiers>
    <_>
      <internalNodes>
        0 -1 255571 -3.9968201890587807e-03</internalNodes>
      <leafValues>
        3.7781485915184021e-01 -5.6554305553436279e-01</leafValues></_>
    <_>
      <internalNodes>
        0 -1 168423 -2.1704424580093473e-04</internalNodes>
      <leafValues>
        -9.0098661184310913e-01 2.4493922293186188e-01</leafValues></_>
    <_>
      <internalNodes>
        0 -1 190844 3.0100450385361910e-04</internalNodes>
      <leafValues>
        1.9347904622554779e-01 -9.3421095609664917e-01</leafValues></_>
    <_>
      <internalNodes>
        0 -1 77899 1.5802083362359554e-04</internalNodes>
      <leafValues>
        -7.5036895275115967e-01 2.5474458932876587e-01</leafValues></_>
    <_>
      <internalNodes>
        0 -1 110153 1.5340159734478220e-05</internalNodes>
      <leafValues>
        1.9758887588977814e-01 -8.2168400287628174e-01</leafValues></_>
    <_>
      <internalNodes>
        0 -1 242656 -3.5297989379614592e-03</internalNodes>
      <leafValues>
        3.5509836673736572e-01 -6.0670405626296997e-01</leafValues></_>
    <_>
      <internalNodes>
        0 -1 175675 -5.7960953563451767e-04</internalNodes>
      <leafValues>
        -9.2772436141967773e-01 1.7444881796836853e-01</leafValues></_>
    <_>
      <internalNodes>
        0 -1 176113 -7.3300514486618340e-05</internalNodes>
      <leafValues>
        -7.0655149221420288e-01 2.5932767987251282e-01</leafValues></_>
    <_>
      <internalNodes>
        0 -1 35222 -5.7948917150497437e-02</internalNodes>
      <leafValues>
        5.5030339956283569e-01 -3.6644610762596130e-01</leafValues></_></weakClassifiers></stage4>
</opencv_storage>
