<?xml version="1.0"?>
<opencv_storage>
<stage13>
  <maxWeakCount>20</maxWeakCount>
  <stageThreshold>-1.6842401027679443e+00</stageThreshold>
  <weakClassifiers>
    <_>
      <internalNodes>
        0 -1 86892 9.3321818858385086e-03</internalNodes>
      <leafValues>
        -4.1410130262374878e-01 4.1993957757949829e-01</leafValues></_>
    <_>
      <internalNodes>
        0 -1 123004 -4.7736717388033867e-03</internalNodes>
      <leafValues>
        2.0688025653362274e-01 -7.0637524127960205e-01</leafValues></_>
    <_>
      <internalNodes>
        0 -1 152778 -6.3274020794779062e-04</internalNodes>
      <leafValues>
        -5.8313566446304321e-01 2.0303651690483093e-01</leafValues></_>
    <_>
      <internalNodes>
        0 -1 153186 1.2110333045711741e-05</internalNodes>
      <leafValues>
        1.4433184266090393e-01 -7.3488277196884155e-01</leafValues></_>
    <_>
      <internalNodes>
        0 -1 76032 -1.9686181098222733e-02</internalNodes>
      <leafValues>
        -6.5324467420578003e-01 1.7494346201419830e-01</leafValues></_>
    <_>
      <internalNodes>
        0 -1 236332 -1.2576102744787931e-04</internalNodes>
      <leafValues>
        2.0979541540145874e-01 -6.4715862274169922e-01</leafValues></_>
    <_>
      <internalNodes>
        0 -1 134357 4.4431479182094336e-04</internalNodes>
      <leafValues>
        1.0766715556383133e-01 -8.1005221605300903e-01</leafValues></_>
    <_>
      <internalNodes>
        0 -1 245580 -1.0238592512905598e-03</internalNodes>
      <leafValues>
        2.2154858708381653e-01 -5.0053513050079346e-01</leafValues></_>
    <_>
      <internalNodes>
        0 -1 93614 -1.3504779417417012e-05</internalNodes>
      <leafValues>
        -8.3326524496078491e-01 1.2570075690746307e-01</leafValues></_>
    <_>
      <internalNodes>
        0 -1 93464 2.2713562473654747e-02</internalNodes>
      <leafValues>
        1.1429437994956970e-01 -7.9669499397277832e-01</leafValues></_>
    <_>
      <internalNodes>
        0 -1 136359 3.5145998001098633e-02</internalNodes>
      <leafValues>
        1.3866598904132843e-01 -6.4246940612792969e-01</leafValues></_>
    <_>
      <internalNodes>
        0 -1 242794 5.5952552706003189e-02</internalNodes>
      <leafValues>
        1.2670332193374634e-01 -7.7034914493560791e-01</leafValues></_>
    <_>
      <internalNodes>
        0 -1 129584 -5.8764824643731117e-03</internalNodes>
      <leafValues>
        1.7356784641742706e-01 -5.3521460294723511e-01</leafValues></_>
    <_>
      <internalNodes>
        0 -1 181553 1.5329482266679406e-04</internalNodes>
      <leafValues>
        -3.3820173144340515e-01 2.9098209738731384e-01</leafValues></_>
    <_>
      <internalNodes>
        0 -1 180416 -1.5722271054983139e-02</internalNodes>
      <leafValues>
        7.5497257709503174e-01 -1.6644567251205444e-01</leafValues></_>
    <_>
      <internalNodes>
        0 -1 217722 4.6239756047725677e-03</internalNodes>
      <leafValues>
        1.6204623878002167e-01 -7.5755888223648071e-01</leafValues></_>
    <_>
      <internalNodes>
        0 -1 232035 8.6482049664482474e-04</internalNodes>
      <leafValues>
        -3.1504321098327637e-01 3.7144708633422852e-01</leafValues></_>
    <_>
      <internalNodes>
        0 -1 157042 -4.8285275697708130e-03</internalNodes>
      <leafValues>
        4.9426689743995667e-01 -2.4765722453594208e-01</leafValues></_>
    <_>
      <internalNodes>
        0 -1 149815 -2.4287018459290266e-04</internalNodes>
      <leafValues>
        -8.6430126428604126e-01 1.3869047164916992e-01</leafValues></_>
    <_>
      <internalNodes>
        0 -1 243095 -1.9938200712203979e-03</internalNodes>
      <leafValues>
        2.0269361138343811e-01 -5.1756298542022705e-01</leafValues></_></weakClassifiers></stage13>
</opencv_storage>
