<?xml version="1.0"?>
<opencv_storage>
<stage2>
  <maxWeakCount>9</maxWeakCount>
  <stageThreshold>-1.3626163005828857e+00</stageThreshold>
  <weakClassifiers>
    <_>
      <internalNodes>
        0 -1 129094 -5.1239274442195892e-02</internalNodes>
      <leafValues>
        7.3938506841659546e-01 -3.8344722986221313e-01</leafValues></_>
    <_>
      <internalNodes>
        0 -1 9931 -1.1113023385405540e-02</internalNodes>
      <leafValues>
        4.3013066053390503e-01 -5.8033114671707153e-01</leafValues></_>
    <_>
      <internalNodes>
        0 -1 165430 1.2991486582905054e-03</internalNodes>
      <leafValues>
        2.4286767840385437e-01 -8.4550523757934570e-01</leafValues></_>
    <_>
      <internalNodes>
        0 -1 93012 -7.8104867134243250e-04</internalNodes>
      <leafValues>
        2.8471198678016663e-01 -8.1717693805694580e-01</leafValues></_>
    <_>
      <internalNodes>
        0 -1 199478 -1.0792536661028862e-02</internalNodes>
      <leafValues>
        -7.5947338342666626e-01 2.2784119844436646e-01</leafValues></_>
    <_>
      <internalNodes>
        0 -1 166035 1.3206927105784416e-03</internalNodes>
      <leafValues>
        2.1960619091987610e-01 -8.2441955804824829e-01</leafValues></_>
    <_>
      <internalNodes>
        0 -1 254071 -1.8958206055685878e-03</internalNodes>
      <leafValues>
        3.5396116971969604e-01 -5.3225046396255493e-01</leafValues></_>
    <_>
      <internalNodes>
        0 -1 200692 -1.9007074297405779e-04</internalNodes>
      <leafValues>
        -7.6774215698242188e-01 2.5428730249404907e-01</leafValues></_>
    <_>
      <internalNodes>
        0 -1 148489 3.0235318467020988e-02</internalNodes>
      <leafValues>
        1.4180497825145721e-01 -7.6774251461029053e-01</leafValues></_></weakClassifiers></stage2>
</opencv_storage>
