<?xml version="1.0"?>
<opencv_storage>
<stage8>
  <maxWeakCount>17</maxWeakCount>
  <stageThreshold>-1.6897792816162109e+00</stageThreshold>
  <weakClassifiers>
    <_>
      <internalNodes>
        0 -1 151415 -1.7853360623121262e-04</internalNodes>
      <leafValues>
        2.3230974376201630e-01 -6.9322711229324341e-01</leafValues></_>
    <_>
      <internalNodes>
        0 -1 255016 -1.3515111058950424e-03</internalNodes>
      <leafValues>
        2.6538234949111938e-01 -4.8187553882598877e-01</leafValues></_>
    <_>
      <internalNodes>
        0 -1 119670 6.6694696433842182e-03</internalNodes>
      <leafValues>
        2.7574178576469421e-01 -5.1902842521667480e-01</leafValues></_>
    <_>
      <internalNodes>
        0 -1 162679 -4.1736038401722908e-03</internalNodes>
      <leafValues>
        -6.5500879287719727e-01 1.6261886060237885e-01</leafValues></_>
    <_>
      <internalNodes>
        0 -1 175661 -7.0378545206040144e-04</internalNodes>
      <leafValues>
        -8.1101804971694946e-01 1.1858894675970078e-01</leafValues></_>
    <_>
      <internalNodes>
        0 -1 10873 -1.3357738032937050e-02</internalNodes>
      <leafValues>
        2.5349283218383789e-01 -4.8721319437026978e-01</leafValues></_>
    <_>
      <internalNodes>
        0 -1 243693 9.7869313322007656e-04</internalNodes>
      <leafValues>
        1.9164958596229553e-01 -5.7368010282516479e-01</leafValues></_>
    <_>
      <internalNodes>
        0 -1 162664 -2.2770903888158500e-04</internalNodes>
      <leafValues>
        1.9060237705707550e-01 -6.9157779216766357e-01</leafValues></_>
    <_>
      <internalNodes>
        0 -1 187095 4.0487345308065414e-02</internalNodes>
      <leafValues>
        9.9621295928955078e-02 -9.1471648216247559e-01</leafValues></_>
    <_>
      <internalNodes>
        0 -1 95489 -5.5718636140227318e-03</internalNodes>
      <leafValues>
        -6.8344825506210327e-01 1.4101800322532654e-01</leafValues></_>
    <_>
      <internalNodes>
        0 -1 193190 2.1534595638513565e-02</internalNodes>
      <leafValues>
        -2.7078443765640259e-01 4.7398900985717773e-01</leafValues></_>
    <_>
      <internalNodes>
        0 -1 201595 -1.0800985619425774e-03</internalNodes>
      <leafValues>
        -9.7228485345840454e-01 1.1945780366659164e-01</leafValues></_>
    <_>
      <internalNodes>
        0 -1 211208 -8.4958097431808710e-04</internalNodes>
      <leafValues>
        2.1192413568496704e-01 -5.4661655426025391e-01</leafValues></_>
    <_>
      <internalNodes>
        0 -1 8258 -4.3958738446235657e-02</internalNodes>
      <leafValues>
        4.9165803194046021e-01 -2.4106970429420471e-01</leafValues></_>
    <_>
      <internalNodes>
        0 -1 79007 -5.0951566663570702e-05</internalNodes>
      <leafValues>
        -5.0560003519058228e-01 2.1367110311985016e-01</leafValues></_>
    <_>
      <internalNodes>
        0 -1 198297 -3.6518739070743322e-03</internalNodes>
      <leafValues>
        5.1201659440994263e-01 -2.3310065269470215e-01</leafValues></_>
    <_>
      <internalNodes>
        0 -1 48857 -9.6429213881492615e-02</internalNodes>
      <leafValues>
        6.3314843177795410e-01 -1.9778627157211304e-01</leafValues></_></weakClassifiers></stage8>
</opencv_storage>
