<?xml version="1.0"?>
<opencv_storage>
<stage14>
  <maxWeakCount>19</maxWeakCount>
  <stageThreshold>-1.5338327884674072e+00</stageThreshold>
  <weakClassifiers>
    <_>
      <internalNodes>
        0 -1 137270 2.4598627351224422e-03</internalNodes>
      <leafValues>
        -2.0747165381908417e-01 6.2075847387313843e-01</leafValues></_>
    <_>
      <internalNodes>
        0 -1 257931 -1.1436969507485628e-03</internalNodes>
      <leafValues>
        3.7945905327796936e-01 -2.9580703377723694e-01</leafValues></_>
    <_>
      <internalNodes>
        0 -1 95661 3.0858591198921204e-03</internalNodes>
      <leafValues>
        1.3364571332931519e-01 -8.3595973253250122e-01</leafValues></_>
    <_>
      <internalNodes>
        0 -1 62811 -8.9041481260210276e-04</internalNodes>
      <leafValues>
        -7.3125058412551880e-01 1.3124017417430878e-01</leafValues></_>
    <_>
      <internalNodes>
        0 -1 199306 8.1097491784021258e-04</internalNodes>
      <leafValues>
        -3.9935722947120667e-01 3.1196454167366028e-01</leafValues></_>
    <_>
      <internalNodes>
        0 -1 244863 -2.7914338279515505e-03</internalNodes>
      <leafValues>
        -7.0094084739685059e-01 2.0624415576457977e-01</leafValues></_>
    <_>
      <internalNodes>
        0 -1 166390 -1.5733221080154181e-03</internalNodes>
      <leafValues>
        2.9560106992721558e-01 -3.5611245036125183e-01</leafValues></_>
    <_>
      <internalNodes>
        0 -1 174882 -4.7739822184666991e-04</internalNodes>
      <leafValues>
        -7.2436791658401489e-01 1.2729263305664062e-01</leafValues></_>
    <_>
      <internalNodes>
        0 -1 94789 -1.8818280659615993e-04</internalNodes>
      <leafValues>
        1.4772367477416992e-01 -6.5868699550628662e-01</leafValues></_>
    <_>
      <internalNodes>
        0 -1 187191 -3.4239160595461726e-04</internalNodes>
      <leafValues>
        -6.9520026445388794e-01 1.1646831035614014e-01</leafValues></_>
    <_>
      <internalNodes>
        0 -1 64058 -5.1954528316855431e-03</internalNodes>
      <leafValues>
        2.0618242025375366e-01 -4.4685366749763489e-01</leafValues></_>
    <_>
      <internalNodes>
        0 -1 249130 3.9832666516304016e-03</internalNodes>
      <leafValues>
        1.2036930769681931e-01 -8.9577841758728027e-01</leafValues></_>
    <_>
      <internalNodes>
        0 -1 186894 -1.1017760261893272e-02</internalNodes>
      <leafValues>
        6.8569219112396240e-01 -2.0995487272739410e-01</leafValues></_>
    <_>
      <internalNodes>
        0 -1 206388 2.5593989994376898e-04</internalNodes>
      <leafValues>
        3.3893868327140808e-01 -3.0725830793380737e-01</leafValues></_>
    <_>
      <internalNodes>
        0 -1 251797 2.4328000843524933e-02</internalNodes>
      <leafValues>
        -2.2282220423221588e-01 5.7593059539794922e-01</leafValues></_>
    <_>
      <internalNodes>
        0 -1 187608 -3.8051715819165111e-04</internalNodes>
      <leafValues>
        -4.6969565749168396e-01 2.2587448358535767e-01</leafValues></_>
    <_>
      <internalNodes>
        0 -1 154339 -2.3003099486231804e-03</internalNodes>
      <leafValues>
        5.7825779914855957e-01 -1.9157621264457703e-01</leafValues></_>
    <_>
      <internalNodes>
        0 -1 91686 -2.9977154918015003e-03</internalNodes>
      <leafValues>
        -6.3336855173110962e-01 1.8638446927070618e-01</leafValues></_>
    <_>
      <internalNodes>
        0 -1 258670 -7.5096678920090199e-03</internalNodes>
      <leafValues>
        3.9043229818344116e-01 -2.4932804703712463e-01</leafValues></_></weakClassifiers></stage14>
</opencv_storage>
