<?xml version="1.0"?>
<opencv_storage>
<stage3>
  <maxWeakCount>14</maxWeakCount>
  <stageThreshold>-1.8223184347152710e+00</stageThreshold>
  <weakClassifiers>
    <_>
      <internalNodes>
        0 -1 175920 4.0186168625950813e-03</internalNodes>
      <leafValues>
        -5.5375254154205322e-01 5.3846156597137451e-01</leafValues></_>
    <_>
      <internalNodes>
        0 -1 220863 1.7112653702497482e-02</internalNodes>
      <leafValues>
        -2.6291126012802124e-01 6.6713398694992065e-01</leafValues></_>
    <_>
      <internalNodes>
        0 -1 220905 3.3532915404066443e-04</internalNodes>
      <leafValues>
        2.3231253027915955e-01 -7.7562105655670166e-01</leafValues></_>
    <_>
      <internalNodes>
        0 -1 201916 6.1688601272180676e-04</internalNodes>
      <leafValues>
        2.1851949393749237e-01 -6.9983142614364624e-01</leafValues></_>
    <_>
      <internalNodes>
        0 -1 220147 4.4064472604077309e-05</internalNodes>
      <leafValues>
        1.3360445201396942e-01 -7.9721915721893311e-01</leafValues></_>
    <_>
      <internalNodes>
        0 -1 151587 9.1177169233560562e-03</internalNodes>
      <leafValues>
        1.4805552363395691e-01 -8.3571088314056396e-01</leafValues></_>
    <_>
      <internalNodes>
        0 -1 179362 3.0765797419007868e-05</internalNodes>
      <leafValues>
        1.3441078364849091e-01 -8.9926630258560181e-01</leafValues></_>
    <_>
      <internalNodes>
        0 -1 188377 -4.6681411913596094e-04</internalNodes>
      <leafValues>
        -7.9852259159088135e-01 1.2125053256750107e-01</leafValues></_>
    <_>
      <internalNodes>
        0 -1 242906 1.6236428928095847e-04</internalNodes>
      <leafValues>
        2.5370970368385315e-01 -5.0585424900054932e-01</leafValues></_>
    <_>
      <internalNodes>
        0 -1 210621 5.6409812532365322e-03</internalNodes>
      <leafValues>
        1.4399145543575287e-01 -7.0283752679824829e-01</leafValues></_>
    <_>
      <internalNodes>
        0 -1 177127 -1.6466298257000744e-04</internalNodes>
      <leafValues>
        2.9940018057823181e-01 -4.4789585471153259e-01</leafValues></_>
    <_>
      <internalNodes>
        0 -1 78220 -5.6946498807519674e-04</internalNodes>
      <leafValues>
        2.3087346553802490e-01 -5.9853595495223999e-01</leafValues></_>
    <_>
      <internalNodes>
        0 -1 202519 3.5148713504895568e-04</internalNodes>
      <leafValues>
        2.0353467762470245e-01 -6.1178225278854370e-01</leafValues></_>
    <_>
      <internalNodes>
        0 -1 184650 -1.8198662437498569e-03</internalNodes>
      <leafValues>
        2.1966651082038879e-01 -4.6652829647064209e-01</leafValues></_></weakClassifiers></stage3>
</opencv_storage>
