<?xml version="1.0"?>
<opencv_storage>
<stage6>
  <maxWeakCount>14</maxWeakCount>
  <stageThreshold>-1.4105376005172729e+00</stageThreshold>
  <weakClassifiers>
    <_>
      <internalNodes>
        0 -1 210676 1.7250280827283859e-02</internalNodes>
      <leafValues>
        -3.8004946708679199e-01 5.8576875925064087e-01</leafValues></_>
    <_>
      <internalNodes>
        0 -1 165221 -8.6773000657558441e-04</internalNodes>
      <leafValues>
        3.5791820287704468e-01 -4.9775162339210510e-01</leafValues></_>
    <_>
      <internalNodes>
        0 -1 168330 1.9110217690467834e-02</internalNodes>
      <leafValues>
        -2.6206946372985840e-01 5.2851641178131104e-01</leafValues></_>
    <_>
      <internalNodes>
        0 -1 139222 2.5647535221651196e-04</internalNodes>
      <leafValues>
        1.6448877751827240e-01 -8.2043987512588501e-01</leafValues></_>
    <_>
      <internalNodes>
        0 -1 138377 1.3396686874330044e-02</internalNodes>
      <leafValues>
        1.1048471182584763e-01 -8.6851525306701660e-01</leafValues></_>
    <_>
      <internalNodes>
        0 -1 200426 -1.5605126463924535e-05</internalNodes>
      <leafValues>
        -7.1548509597778320e-01 1.4519396424293518e-01</leafValues></_>
    <_>
      <internalNodes>
        0 -1 199749 3.4674240741878748e-03</internalNodes>
      <leafValues>
        1.1364050954580307e-01 -6.7342209815979004e-01</leafValues></_>
    <_>
      <internalNodes>
        0 -1 237286 4.5984191820025444e-04</internalNodes>
      <leafValues>
        2.6972344517707825e-01 -4.4833803176879883e-01</leafValues></_>
    <_>
      <internalNodes>
        0 -1 199588 -6.8277418613433838e-03</internalNodes>
      <leafValues>
        -7.7780920267105103e-01 1.5664955973625183e-01</leafValues></_>
    <_>
      <internalNodes>
        0 -1 177948 3.4622601233422756e-03</internalNodes>
      <leafValues>
        8.8092014193534851e-02 -9.2281186580657959e-01</leafValues></_>
    <_>
      <internalNodes>
        0 -1 221334 1.7126071033999324e-03</internalNodes>
      <leafValues>
        -2.2799724340438843e-01 4.4823259115219116e-01</leafValues></_>
    <_>
      <internalNodes>
        0 -1 154843 1.1546155437827110e-03</internalNodes>
      <leafValues>
        -3.2065394520759583e-01 3.2598897814750671e-01</leafValues></_>
    <_>
      <internalNodes>
        0 -1 139158 3.3172423718497157e-04</internalNodes>
      <leafValues>
        1.3716144859790802e-01 -8.4750688076019287e-01</leafValues></_>
    <_>
      <internalNodes>
        0 -1 220180 5.7222635950893164e-04</internalNodes>
      <leafValues>
        1.1931003630161285e-01 -6.8831092119216919e-01</leafValues></_></weakClassifiers></stage6>
</opencv_storage>
