<?xml version="1.0"?>
<opencv_storage>
<stage4>
  <maxWeakCount>14</maxWeakCount>
  <stageThreshold>-1.6037764549255371e+00</stageThreshold>
  <weakClassifiers>
    <_>
      <internalNodes>
        0 -1 165341 -1.0736447572708130e-01</internalNodes>
      <leafValues>
        7.7878785133361816e-01 -3.8358208537101746e-01</leafValues></_>
    <_>
      <internalNodes>
        0 -1 151700 2.0696371211670339e-04</internalNodes>
      <leafValues>
        -4.6642768383026123e-01 3.7535786628723145e-01</leafValues></_>
    <_>
      <internalNodes>
        0 -1 178538 -5.7983689475804567e-04</internalNodes>
      <leafValues>
        -7.1384394168853760e-01 1.8294721841812134e-01</leafValues></_>
    <_>
      <internalNodes>
        0 -1 211056 -1.5499209985136986e-03</internalNodes>
      <leafValues>
        -7.4450773000717163e-01 2.2280909121036530e-01</leafValues></_>
    <_>
      <internalNodes>
        0 -1 178851 3.1661031243856996e-05</internalNodes>
      <leafValues>
        8.4421128034591675e-02 -9.0549391508102417e-01</leafValues></_>
    <_>
      <internalNodes>
        0 -1 1413 -8.2169912755489349e-02</internalNodes>
      <leafValues>
        4.9812397360801697e-01 -2.6979526877403259e-01</leafValues></_>
    <_>
      <internalNodes>
        0 -1 151260 1.4176042750477791e-03</internalNodes>
      <leafValues>
        -4.5667234063148499e-01 2.9056021571159363e-01</leafValues></_>
    <_>
      <internalNodes>
        0 -1 189115 1.9987434148788452e-02</internalNodes>
      <leafValues>
        1.6552260518074036e-01 -7.9869174957275391e-01</leafValues></_>
    <_>
      <internalNodes>
        0 -1 123883 2.6550249458523467e-05</internalNodes>
      <leafValues>
        1.1574665457010269e-01 -9.8290657997131348e-01</leafValues></_>
    <_>
      <internalNodes>
        0 -1 152382 1.2010136852040887e-03</internalNodes>
      <leafValues>
        -5.8089250326156616e-01 1.6981191933155060e-01</leafValues></_>
    <_>
      <internalNodes>
        0 -1 188410 -2.2657223045825958e-02</internalNodes>
      <leafValues>
        -7.2221934795379639e-01 1.5529863536357880e-01</leafValues></_>
    <_>
      <internalNodes>
        0 -1 199161 1.7049476809916086e-05</internalNodes>
      <leafValues>
        2.4040198326110840e-01 -4.7949388623237610e-01</leafValues></_>
    <_>
      <internalNodes>
        0 -1 210334 1.1992722284048796e-03</internalNodes>
      <leafValues>
        1.7732703685760498e-01 -6.0079860687255859e-01</leafValues></_>
    <_>
      <internalNodes>
        0 -1 123779 -9.0454164892435074e-03</internalNodes>
      <leafValues>
        -8.0913376808166504e-01 1.4562727510929108e-01</leafValues></_></weakClassifiers></stage4>
</opencv_storage>
