<?xml version="1.0"?>
<opencv_storage>
<stage3>
  <maxWeakCount>12</maxWeakCount>
  <stageThreshold>-1.7118777036666870e+00</stageThreshold>
  <weakClassifiers>
    <_>
      <internalNodes>
        0 -1 5188 3.4196142107248306e-02</internalNodes>
      <leafValues>
        -5.6880736351013184e-01 5.6751823425292969e-01</leafValues></_>
    <_>
      <internalNodes>
        0 -1 120214 -3.0885089188814163e-02</internalNodes>
      <leafValues>
        5.7440775632858276e-01 -5.2266132831573486e-01</leafValues></_>
    <_>
      <internalNodes>
        0 -1 70917 8.1466175615787506e-02</internalNodes>
      <leafValues>
        -4.0413537621498108e-01 7.0851814746856689e-01</leafValues></_>
    <_>
      <internalNodes>
        0 -1 47907 1.8938809633255005e-02</internalNodes>
      <leafValues>
        -7.7540922164916992e-01 2.7059078216552734e-01</leafValues></_>
    <_>
      <internalNodes>
        0 -1 62427 6.1801858246326447e-02</internalNodes>
      <leafValues>
        -4.2704802751541138e-01 4.4634085893630981e-01</leafValues></_>
    <_>
      <internalNodes>
        0 -1 122872 -1.2432016956154257e-04</internalNodes>
      <leafValues>
        -6.4025372266769409e-01 2.5111883878707886e-01</leafValues></_>
    <_>
      <internalNodes>
        0 -1 41924 -9.1991694644093513e-03</internalNodes>
      <leafValues>
        3.6393028497695923e-01 -4.6778365969657898e-01</leafValues></_>
    <_>
      <internalNodes>
        0 -1 12521 3.3639821410179138e-01</internalNodes>
      <leafValues>
        -2.4982811510562897e-01 8.4825903177261353e-01</leafValues></_>
    <_>
      <internalNodes>
        0 -1 86177 -7.4380128644406796e-03</internalNodes>
      <leafValues>
        4.0939447283744812e-01 -4.4183278083801270e-01</leafValues></_>
    <_>
      <internalNodes>
        0 -1 58895 4.8540793359279633e-03</internalNodes>
      <leafValues>
        -4.0616637468338013e-01 3.7572014331817627e-01</leafValues></_>
    <_>
      <internalNodes>
        0 -1 71685 8.9252903126180172e-04</internalNodes>
      <leafValues>
        2.1930953860282898e-01 -7.5712460279464722e-01</leafValues></_>
    <_>
      <internalNodes>
        0 -1 117768 -8.1406222307123244e-05</internalNodes>
      <leafValues>
        -5.3808903694152832e-01 2.3650299012660980e-01</leafValues></_></weakClassifiers></stage3>
</opencv_storage>
