<?xml version="1.0"?>
<opencv_storage>
<stage0>
  <maxWeakCount>5</maxWeakCount>
  <stageThreshold>-1.8510328531265259e+00</stageThreshold>
  <weakClassifiers>
    <_>
      <internalNodes>
        0 -1 26848 7.1282368153333664e-03</internalNodes>
      <leafValues>
        -7.3548388481140137e-01 7.3987728357315063e-01</leafValues></_>
    <_>
      <internalNodes>
        0 -1 120418 -2.1403063088655472e-02</internalNodes>
      <leafValues>
        7.4574130773544312e-01 -6.1239480972290039e-01</leafValues></_>
    <_>
      <internalNodes>
        0 -1 29655 4.6857625246047974e-02</internalNodes>
      <leafValues>
        -5.5766391754150391e-01 7.2571873664855957e-01</leafValues></_>
    <_>
      <internalNodes>
        0 -1 6448 1.0865878313779831e-02</internalNodes>
      <leafValues>
        -6.2683421373367310e-01 5.3279447555541992e-01</leafValues></_>
    <_>
      <internalNodes>
        0 -1 44422 6.1227072030305862e-02</internalNodes>
      <leafValues>
        -6.0203868150711060e-01 4.7978430986404419e-01</leafValues></_></weakClassifiers></stage0>
</opencv_storage>
