<?xml version="1.0"?>
<opencv_storage>
<stage4>
  <maxWeakCount>12</maxWeakCount>
  <stageThreshold>-1.7630089521408081e+00</stageThreshold>
  <weakClassifiers>
    <_>
      <internalNodes>
        0 -1 54430 1.0743717104196548e-01</internalNodes>
      <leafValues>
        -2.8810226917266846e-01 7.4079126119613647e-01</leafValues></_>
    <_>
      <internalNodes>
        0 -1 111050 2.3615932464599609e-01</internalNodes>
      <leafValues>
        -4.1177538037300110e-01 5.9132623672485352e-01</leafValues></_>
    <_>
      <internalNodes>
        0 -1 10097 1.8430554866790771e-01</internalNodes>
      <leafValues>
        -4.7138661146163940e-01 4.8565539717674255e-01</leafValues></_>
    <_>
      <internalNodes>
        0 -1 64768 5.9037290513515472e-02</internalNodes>
      <leafValues>
        -3.8514053821563721e-01 7.6180297136306763e-01</leafValues></_>
    <_>
      <internalNodes>
        0 -1 60604 -1.1178907006978989e-03</internalNodes>
      <leafValues>
        2.7567768096923828e-01 -6.4493191242218018e-01</leafValues></_>
    <_>
      <internalNodes>
        0 -1 112733 -5.4924391210079193e-02</internalNodes>
      <leafValues>
        4.4444158673286438e-01 -4.0171936154365540e-01</leafValues></_>
    <_>
      <internalNodes>
        0 -1 6443 2.0545627921819687e-02</internalNodes>
      <leafValues>
        -4.2141854763031006e-01 4.4533538818359375e-01</leafValues></_>
    <_>
      <internalNodes>
        0 -1 5559 -6.2710858881473541e-02</internalNodes>
      <leafValues>
        -8.1773912906646729e-01 2.1565832197666168e-01</leafValues></_>
    <_>
      <internalNodes>
        0 -1 59288 6.3670724630355835e-02</internalNodes>
      <leafValues>
        1.5416562557220459e-01 -8.1274336576461792e-01</leafValues></_>
    <_>
      <internalNodes>
        0 -1 49991 5.2770595997571945e-02</internalNodes>
      <leafValues>
        -4.9025508761405945e-01 3.1499904394149780e-01</leafValues></_>
    <_>
      <internalNodes>
        0 -1 32835 -9.6370577812194824e-02</internalNodes>
      <leafValues>
        -8.7550580501556396e-01 1.5557567775249481e-01</leafValues></_>
    <_>
      <internalNodes>
        0 -1 120474 8.9339417172595859e-05</internalNodes>
      <leafValues>
        3.0571156740188599e-01 -5.4233306646347046e-01</leafValues></_></weakClassifiers></stage4>
</opencv_storage>
