<?xml version="1.0"?>
<opencv_storage>
<stage7>
  <maxWeakCount>19</maxWeakCount>
  <stageThreshold>-1.5178120136260986e+00</stageThreshold>
  <weakClassifiers>
    <_>
      <internalNodes>
        0 -1 150309 -3.0284803360700607e-03</internalNodes>
      <leafValues>
        2.9421222209930420e-01 -4.8412698507308960e-01</leafValues></_>
    <_>
      <internalNodes>
        0 -1 106106 -4.8696001613279805e-05</internalNodes>
      <leafValues>
        -5.5400454998016357e-01 2.4626788496971130e-01</leafValues></_>
    <_>
      <internalNodes>
        0 -1 260194 2.5307608302682638e-03</internalNodes>
      <leafValues>
        -2.8331455588340759e-01 4.1968783736228943e-01</leafValues></_>
    <_>
      <internalNodes>
        0 -1 45729 1.2515315320342779e-03</internalNodes>
      <leafValues>
        1.2740696966648102e-01 -8.1306207180023193e-01</leafValues></_>
    <_>
      <internalNodes>
        0 -1 260541 -5.6664273870410398e-05</internalNodes>
      <leafValues>
        -4.9943491816520691e-01 2.2170016169548035e-01</leafValues></_>
    <_>
      <internalNodes>
        0 -1 198232 -8.8969839271157980e-04</internalNodes>
      <leafValues>
        1.7830191552639008e-01 -5.1228499412536621e-01</leafValues></_>
    <_>
      <internalNodes>
        0 -1 207425 5.9325404465198517e-02</internalNodes>
      <leafValues>
        1.6070762276649475e-01 -7.3791408538818359e-01</leafValues></_>
    <_>
      <internalNodes>
        0 -1 174063 1.4120449777692556e-03</internalNodes>
      <leafValues>
        4.9583263695240021e-02 -7.8460657596588135e-01</leafValues></_>
    <_>
      <internalNodes>
        0 -1 245584 -4.6101463958621025e-03</internalNodes>
      <leafValues>
        2.7927815914154053e-01 -3.6496004462242126e-01</leafValues></_>
    <_>
      <internalNodes>
        0 -1 78476 5.6548707652837038e-04</internalNodes>
      <leafValues>
        -6.2096345424652100e-01 1.4663910865783691e-01</leafValues></_>
    <_>
      <internalNodes>
        0 -1 8172 -4.4031225144863129e-02</internalNodes>
      <leafValues>
        4.5405200123786926e-01 -2.3497171700000763e-01</leafValues></_>
    <_>
      <internalNodes>
        0 -1 193139 2.8266713488847017e-03</internalNodes>
      <leafValues>
        -2.3753030598163605e-01 4.5550283789634705e-01</leafValues></_>
    <_>
      <internalNodes>
        0 -1 134172 -1.4803314581513405e-02</internalNodes>
      <leafValues>
        -7.0778185129165649e-01 1.5919007360935211e-01</leafValues></_>
    <_>
      <internalNodes>
        0 -1 168350 -1.8147256225347519e-02</internalNodes>
      <leafValues>
        5.5947053432464600e-01 -1.9561246037483215e-01</leafValues></_>
    <_>
      <internalNodes>
        0 -1 125676 9.0281181037425995e-03</internalNodes>
      <leafValues>
        1.3362005352973938e-01 -7.1185594797134399e-01</leafValues></_>
    <_>
      <internalNodes>
        0 -1 228317 -1.6130188014358282e-03</internalNodes>
      <leafValues>
        2.5933638215065002e-01 -3.6027312278747559e-01</leafValues></_>
    <_>
      <internalNodes>
        0 -1 254962 -4.9626326654106379e-04</internalNodes>
      <leafValues>
        -6.7449229955673218e-01 1.1994165927171707e-01</leafValues></_>
    <_>
      <internalNodes>
        0 -1 200536 -4.2709533590823412e-04</internalNodes>
      <leafValues>
        3.6289927363395691e-01 -2.6199811697006226e-01</leafValues></_>
    <_>
      <internalNodes>
        0 -1 188244 -8.3637883653864264e-04</internalNodes>
      <leafValues>
        4.9342241883277893e-01 -2.1877266466617584e-01</leafValues></_></weakClassifiers></stage7>
</opencv_storage>
