<?xml version="1.0"?>
<opencv_storage>
<stage11>
  <maxWeakCount>24</maxWeakCount>
  <stageThreshold>-1.2177904844284058e+00</stageThreshold>
  <weakClassifiers>
    <_>
      <internalNodes>
        0 -1 254594 -2.1109920926392078e-03</internalNodes>
      <leafValues>
        5.5939525365829468e-01 -1.7425742745399475e-01</leafValues></_>
    <_>
      <internalNodes>
        0 -1 60572 2.3215755354613066e-03</internalNodes>
      <leafValues>
        -3.8024803996086121e-01 3.3231905102729797e-01</leafValues></_>
    <_>
      <internalNodes>
        0 -1 218950 -4.2373529140604660e-05</internalNodes>
      <leafValues>
        2.0046187937259674e-01 -4.6577352285385132e-01</leafValues></_>
    <_>
      <internalNodes>
        0 -1 147708 2.1302665118128061e-03</internalNodes>
      <leafValues>
        1.7143648862838745e-01 -5.1320600509643555e-01</leafValues></_>
    <_>
      <internalNodes>
        0 -1 79083 -7.5704324990510941e-04</internalNodes>
      <leafValues>
        -5.7474482059478760e-01 1.3253694772720337e-01</leafValues></_>
    <_>
      <internalNodes>
        0 -1 178332 1.7159717390313745e-03</internalNodes>
      <leafValues>
        -1.9369538128376007e-01 4.5003432035446167e-01</leafValues></_>
    <_>
      <internalNodes>
        0 -1 46562 2.4858873803168535e-03</internalNodes>
      <leafValues>
        1.0302662849426270e-01 -6.7350101470947266e-01</leafValues></_>
    <_>
      <internalNodes>
        0 -1 204056 -1.2015942484140396e-03</internalNodes>
      <leafValues>
        -5.8985841274261475e-01 1.2427692860364914e-01</leafValues></_>
    <_>
      <internalNodes>
        0 -1 160365 4.4656939804553986e-02</internalNodes>
      <leafValues>
        8.8355928659439087e-02 -7.3362952470779419e-01</leafValues></_>
    <_>
      <internalNodes>
        0 -1 28354 5.9181721881031990e-03</internalNodes>
      <leafValues>
        -1.3942606747150421e-01 5.7874536514282227e-01</leafValues></_>
    <_>
      <internalNodes>
        0 -1 250609 -6.9081089459359646e-03</internalNodes>
      <leafValues>
        -7.1571743488311768e-01 1.1562003940343857e-01</leafValues></_>
    <_>
      <internalNodes>
        0 -1 258005 -1.9635488279163837e-03</internalNodes>
      <leafValues>
        2.4571643769741058e-01 -3.2096287608146667e-01</leafValues></_>
    <_>
      <internalNodes>
        0 -1 250407 -2.4093378335237503e-02</internalNodes>
      <leafValues>
        -8.3667999505996704e-01 9.5693826675415039e-02</leafValues></_>
    <_>
      <internalNodes>
        0 -1 131378 -2.4738129228353500e-02</internalNodes>
      <leafValues>
        3.4908434748649597e-01 -2.1418638527393341e-01</leafValues></_>
    <_>
      <internalNodes>
        0 -1 110659 3.1092081917449832e-04</internalNodes>
      <leafValues>
        1.9900618493556976e-01 -3.7734627723693848e-01</leafValues></_>
    <_>
      <internalNodes>
        0 -1 95672 5.1405923441052437e-03</internalNodes>
      <leafValues>
        8.5199259221553802e-02 -7.0955842733383179e-01</leafValues></_>
    <_>
      <internalNodes>
        0 -1 65791 -2.0464023109525442e-03</internalNodes>
      <leafValues>
        2.3172573745250702e-01 -3.3089029788970947e-01</leafValues></_>
    <_>
      <internalNodes>
        0 -1 176393 1.6279686242341995e-03</internalNodes>
      <leafValues>
        -1.4701354503631592e-01 5.4456079006195068e-01</leafValues></_>
    <_>
      <internalNodes>
        0 -1 249144 5.0942394882440567e-03</internalNodes>
      <leafValues>
        1.1137179285287857e-01 -8.3276551961898804e-01</leafValues></_>
    <_>
      <internalNodes>
        0 -1 125594 -1.0009164921939373e-02</internalNodes>
      <leafValues>
        5.3907769918441772e-01 -1.5676343441009521e-01</leafValues></_>
    <_>
      <internalNodes>
        0 -1 28381 -5.5213794112205505e-03</internalNodes>
      <leafValues>
        4.0160220861434937e-01 -1.6951592266559601e-01</leafValues></_>
    <_>
      <internalNodes>
        0 -1 61369 2.4668150581419468e-03</internalNodes>
      <leafValues>
        9.7881093621253967e-02 -7.0881807804107666e-01</leafValues></_>
    <_>
      <internalNodes>
        0 -1 121063 6.9518126547336578e-03</internalNodes>
      <leafValues>
        -1.1531788855791092e-01 6.9535100460052490e-01</leafValues></_>
    <_>
      <internalNodes>
        0 -1 121076 -6.6486629657447338e-03</internalNodes>
      <leafValues>
        5.1347225904464722e-01 -1.3881872594356537e-01</leafValues></_></weakClassifiers></stage11>
</opencv_storage>
