<?xml version="1.0"?>
<opencv_storage>
<stage12>
  <maxWeakCount>14</maxWeakCount>
  <stageThreshold>-1.1838091611862183e+00</stageThreshold>
  <weakClassifiers>
    <_>
      <internalNodes>
        0 -1 255210 7.5106676667928696e-03</internalNodes>
      <leafValues>
        -2.9750779271125793e-01 5.3351956605911255e-01</leafValues></_>
    <_>
      <internalNodes>
        0 -1 257720 -6.1359740793704987e-03</internalNodes>
      <leafValues>
        4.6227556467056274e-01 -2.6479378342628479e-01</leafValues></_>
    <_>
      <internalNodes>
        0 -1 121989 -1.1241360334679484e-03</internalNodes>
      <leafValues>
        -7.3307406902313232e-01 1.5902866423130035e-01</leafValues></_>
    <_>
      <internalNodes>
        0 -1 77012 2.5484990328550339e-04</internalNodes>
      <leafValues>
        -4.1491827368736267e-01 2.8265684843063354e-01</leafValues></_>
    <_>
      <internalNodes>
        0 -1 150973 -4.9612637667451054e-05</internalNodes>
      <leafValues>
        1.8127430975437164e-01 -5.8427661657333374e-01</leafValues></_>
    <_>
      <internalNodes>
        0 -1 190159 -1.3639169083035085e-05</internalNodes>
      <leafValues>
        -7.1090126037597656e-01 1.0284524410963058e-01</leafValues></_>
    <_>
      <internalNodes>
        0 -1 106867 1.0552118765190244e-03</internalNodes>
      <leafValues>
        -4.1014364361763000e-01 2.4130877852439880e-01</leafValues></_>
    <_>
      <internalNodes>
        0 -1 199342 -1.0167756117880344e-03</internalNodes>
      <leafValues>
        -8.0103701353073120e-01 1.4124695956707001e-01</leafValues></_>
    <_>
      <internalNodes>
        0 -1 172117 -4.6720832586288452e-02</internalNodes>
      <leafValues>
        7.7507364749908447e-01 -1.5193422138690948e-01</leafValues></_>
    <_>
      <internalNodes>
        0 -1 190655 -3.5590906627476215e-03</internalNodes>
      <leafValues>
        7.8063571453094482e-01 -1.2730307877063751e-01</leafValues></_>
    <_>
      <internalNodes>
        0 -1 93287 -3.1329055782407522e-03</internalNodes>
      <leafValues>
        -6.6387706995010376e-01 2.1010477840900421e-01</leafValues></_>
    <_>
      <internalNodes>
        0 -1 159250 -4.7285575419664383e-03</internalNodes>
      <leafValues>
        4.6784195303916931e-01 -2.6092782616615295e-01</leafValues></_>
    <_>
      <internalNodes>
        0 -1 189413 -1.5887460904195905e-04</internalNodes>
      <leafValues>
        -7.8466552495956421e-01 1.7394009232521057e-01</leafValues></_>
    <_>
      <internalNodes>
        0 -1 122108 2.3415666073560715e-03</internalNodes>
      <leafValues>
        -6.1205035448074341e-01 1.4615786075592041e-01</leafValues></_></weakClassifiers></stage12>
</opencv_storage>
