<?xml version="1.0"?>
<opencv_storage>
<stage10>
  <maxWeakCount>15</maxWeakCount>
  <stageThreshold>-1.4513309001922607e+00</stageThreshold>
  <weakClassifiers>
    <_>
      <internalNodes>
        0 -1 222172 -7.8682173043489456e-03</internalNodes>
      <leafValues>
        4.4639375805854797e-01 -4.7022587060928345e-01</leafValues></_>
    <_>
      <internalNodes>
        0 -1 76943 -2.1517793647944927e-03</internalNodes>
      <leafValues>
        2.7098870277404785e-01 -5.9095060825347900e-01</leafValues></_>
    <_>
      <internalNodes>
        0 -1 92054 5.2805384621024132e-04</internalNodes>
      <leafValues>
        -7.3316591978073120e-01 1.4472973346710205e-01</leafValues></_>
    <_>
      <internalNodes>
        0 -1 62851 -4.2218966409564018e-03</internalNodes>
      <leafValues>
        2.2829638421535492e-01 -5.6580835580825806e-01</leafValues></_>
    <_>
      <internalNodes>
        0 -1 253301 -1.0351253673434258e-02</internalNodes>
      <leafValues>
        6.0460197925567627e-01 -2.1570725739002228e-01</leafValues></_>
    <_>
      <internalNodes>
        0 -1 152697 8.2636019214987755e-04</internalNodes>
      <leafValues>
        -5.9751707315444946e-01 2.0963190495967865e-01</leafValues></_>
    <_>
      <internalNodes>
        0 -1 228615 1.5404454898089170e-03</internalNodes>
      <leafValues>
        1.0048406571149826e-01 -8.6565786600112915e-01</leafValues></_>
    <_>
      <internalNodes>
        0 -1 138329 1.0797869414091110e-02</internalNodes>
      <leafValues>
        1.1945542693138123e-01 -7.9959475994110107e-01</leafValues></_>
    <_>
      <internalNodes>
        0 -1 163229 -1.5572673873975873e-04</internalNodes>
      <leafValues>
        -5.8354067802429199e-01 1.9255973398685455e-01</leafValues></_>
    <_>
      <internalNodes>
        0 -1 165214 -7.6836312655359507e-04</internalNodes>
      <leafValues>
        1.7734228074550629e-01 -6.4511543512344360e-01</leafValues></_>
    <_>
      <internalNodes>
        0 -1 185202 6.4288198947906494e-02</internalNodes>
      <leafValues>
        1.1567150801420212e-01 -8.3567607402801514e-01</leafValues></_>
    <_>
      <internalNodes>
        0 -1 210338 1.7807312542572618e-04</internalNodes>
      <leafValues>
        1.0370600968599319e-01 -7.4193006753921509e-01</leafValues></_>
    <_>
      <internalNodes>
        0 -1 188015 2.4120477028191090e-03</internalNodes>
      <leafValues>
        1.1634176224470139e-01 -8.4989094734191895e-01</leafValues></_>
    <_>
      <internalNodes>
        0 -1 130042 -2.0991930738091469e-02</internalNodes>
      <leafValues>
        5.7973736524581909e-01 -2.0403662323951721e-01</leafValues></_>
    <_>
      <internalNodes>
        0 -1 228730 -1.9509319099597633e-04</internalNodes>
      <leafValues>
        -4.8610946536064148e-01 2.1695148944854736e-01</leafValues></_></weakClassifiers></stage10>
</opencv_storage>
