<?xml version="1.0"?>
<opencv_storage>
<stage8>
  <maxWeakCount>14</maxWeakCount>
  <stageThreshold>-1.3355219364166260e+00</stageThreshold>
  <weakClassifiers>
    <_>
      <internalNodes>
        0 -1 140313 6.1190992593765259e-02</internalNodes>
      <leafValues>
        -3.5361841320991516e-01 5.4846936464309692e-01</leafValues></_>
    <_>
      <internalNodes>
        0 -1 201601 7.2771846316754818e-04</internalNodes>
      <leafValues>
        -6.7920494079589844e-01 2.5102734565734863e-01</leafValues></_>
    <_>
      <internalNodes>
        0 -1 260500 1.0627536539686844e-05</internalNodes>
      <leafValues>
        2.0422543585300446e-01 -6.4327758550643921e-01</leafValues></_>
    <_>
      <internalNodes>
        0 -1 136466 -1.1418615467846394e-03</internalNodes>
      <leafValues>
        -9.1185474395751953e-01 1.5736417472362518e-01</leafValues></_>
    <_>
      <internalNodes>
        0 -1 165552 4.5161170419305563e-04</internalNodes>
      <leafValues>
        1.3906891644001007e-01 -8.8374972343444824e-01</leafValues></_>
    <_>
      <internalNodes>
        0 -1 149889 -1.2468176428228617e-03</internalNodes>
      <leafValues>
        -7.8898155689239502e-01 1.5090048313140869e-01</leafValues></_>
    <_>
      <internalNodes>
        0 -1 137532 3.4440256655216217e-02</internalNodes>
      <leafValues>
        1.4335371553897858e-01 -7.1869432926177979e-01</leafValues></_>
    <_>
      <internalNodes>
        0 -1 221764 7.9671051353216171e-03</internalNodes>
      <leafValues>
        -2.2293876111507416e-01 7.1712028980255127e-01</leafValues></_>
    <_>
      <internalNodes>
        0 -1 246762 -2.3329653777182102e-03</internalNodes>
      <leafValues>
        2.8014221787452698e-01 -5.6431561708450317e-01</leafValues></_>
    <_>
      <internalNodes>
        0 -1 176406 1.0150482412427664e-03</internalNodes>
      <leafValues>
        1.4754518866539001e-01 -8.7210094928741455e-01</leafValues></_>
    <_>
      <internalNodes>
        0 -1 77151 2.0606664475053549e-03</internalNodes>
      <leafValues>
        -7.1549081802368164e-01 1.4975112676620483e-01</leafValues></_>
    <_>
      <internalNodes>
        0 -1 75912 6.9936593063175678e-03</internalNodes>
      <leafValues>
        1.4842475950717926e-01 -6.8296521902084351e-01</leafValues></_>
    <_>
      <internalNodes>
        0 -1 95309 2.3889758158475161e-03</internalNodes>
      <leafValues>
        2.0844197273254395e-01 -5.7500100135803223e-01</leafValues></_>
    <_>
      <internalNodes>
        0 -1 45941 4.1229091584682465e-03</internalNodes>
      <leafValues>
        -7.8923064470291138e-01 1.2246827036142349e-01</leafValues></_></weakClassifiers></stage8>
</opencv_storage>
