<?xml version="1.0"?>
<opencv_storage>
<stage4>
  <maxWeakCount>7</maxWeakCount>
  <stageThreshold>-1.4640852212905884e+00</stageThreshold>
  <weakClassifiers>
    <_>
      <internalNodes>
        0 -1 201143 1.0298073757439852e-03</internalNodes>
      <leafValues>
        3.2783505320549011e-01 -8.7522935867309570e-01</leafValues></_>
    <_>
      <internalNodes>
        0 -1 226725 1.1781241744756699e-01</internalNodes>
      <leafValues>
        -5.8505809307098389e-01 4.6423617005348206e-01</leafValues></_>
    <_>
      <internalNodes>
        0 -1 221761 -8.7120500393211842e-04</internalNodes>
      <leafValues>
        -8.5702967643737793e-01 2.4963882565498352e-01</leafValues></_>
    <_>
      <internalNodes>
        0 -1 95269 2.5331624783575535e-03</internalNodes>
      <leafValues>
        -7.6221752166748047e-01 2.9586336016654968e-01</leafValues></_>
    <_>
      <internalNodes>
        0 -1 136746 -7.0539879379794002e-04</internalNodes>
      <leafValues>
        -8.8121670484542847e-01 2.0412261784076691e-01</leafValues></_>
    <_>
      <internalNodes>
        0 -1 178851 2.5610267766751349e-04</internalNodes>
      <leafValues>
        1.6727396845817566e-01 -9.5455288887023926e-01</leafValues></_>
    <_>
      <internalNodes>
        0 -1 190075 3.5778677556663752e-04</internalNodes>
      <leafValues>
        1.3738439977169037e-01 -9.7929131984710693e-01</leafValues></_></weakClassifiers></stage4>
</opencv_storage>
