<?xml version="1.0"?>
<opencv_storage>
<stage3>
  <maxWeakCount>6</maxWeakCount>
  <stageThreshold>-9.6178072690963745e-01</stageThreshold>
  <weakClassifiers>
    <_>
      <internalNodes>
        0 -1 255104 2.4335233494639397e-02</internalNodes>
      <leafValues>
        -6.5333330631256104e-01 5.3454548120498657e-01</leafValues></_>
    <_>
      <internalNodes>
        0 -1 130293 -3.5519186407327652e-02</internalNodes>
      <leafValues>
        5.8190512657165527e-01 -4.9964752793312073e-01</leafValues></_>
    <_>
      <internalNodes>
        0 -1 190353 1.5147494559641927e-04</internalNodes>
      <leafValues>
        3.1620082259178162e-01 -7.8765332698822021e-01</leafValues></_>
    <_>
      <internalNodes>
        0 -1 236022 1.8399984401185066e-04</internalNodes>
      <leafValues>
        2.7575585246086121e-01 -9.5998758077621460e-01</leafValues></_>
    <_>
      <internalNodes>
        0 -1 142107 -2.1544300019741058e-02</internalNodes>
      <leafValues>
        5.6232666969299316e-01 -4.0643873810768127e-01</leafValues></_>
    <_>
      <internalNodes>
        0 -1 201114 -5.9593433979898691e-04</internalNodes>
      <leafValues>
        -9.7462248802185059e-01 1.5987297892570496e-01</leafValues></_></weakClassifiers></stage3>
</opencv_storage>
